00000000
00000000
00000000
00000000
00000000
00000000
00000000
00000000
00000000
00000000
00000000
00000000
00000000
00000000
00000000
00000000
00000000
00000000
00000000
00000000
00002bbf
ffffe5c9
00003c46
00003a71
00003dcc
000021a9
ffffe732
ffffe5b8
0000276b
0000157e
00000bd2
ffffdfc5
fffffdce
ffffdfb1
0000293d
fffffe2c
fffff2b4
00001ec6
ffffe23e
00001180
fffff9f9
fffff67a
000002a0
ffffedb9
00001eab
fffff35b
00003c2c
ffffe8d9
00003033
ffffdff8
ffffeb86
00000521
ffffdd9f
ffffe509
ffffc582
ffffdddd
000020de
00003c91
fffffd7c
ffffdcb2
fffffd3a
fffff8db
fffff311
ffffd7a8
00001d20
00003ba7
00002f60
00000b77
00002638
000033ac
ffffd889
0000034d
ffffcb7c
00003460
000020ac
00002aaa
ffffdfee
ffffd07b
ffffff47
ffffeed7
00003063
ffffe737
ffffcfbe
00000cbc
00002c79
00003c80
ffffcf38
ffffc535
00003df8
ffffc746
ffffde03
00003201
fffff3bb
000003f5
00001d12
ffffc3f1
ffffdbe9
ffffd526
00001078
ffffd872
00003804
ffffd101
ffffdd01
ffffe273
00002d8e
00002fea
000005cf
ffffda30
00000475
ffffff40
00001b4a
0000261e
00002593
ffffdc5d
00001cba
ffffee25
fffff606
ffffcc3b
00000758
ffffed48
00000ecc
000022d3
00002f98
00003550
00000728
00001e1f
000019df
000036a6
00002c10
00000ea6
00003827
0000261f
ffffdbc3
0000395b
000018d1
00002361
ffffc524
fffff350
ffffef27
ffffc4f6
fffffd94
ffffff26
000027ef
ffffe3da
fffff126
ffffba3a
ffffda12
ffffe4d2
ffffe134
ffffff0a
ffffd7e6
ffffef4d
ffffdf82
ffffff82
0000297a
00002fd2
0000341d
00002c99
000016ee
ffffedad
00000d02
000017f1
ffffc74e
000039bb
ffffcf44
ffffcc0a
ffffe43c
ffffdfcd
fffff4f6
00002bbe
0000062e
000030f8
000038e1
ffffe2af
ffffe0f2
ffffd37d
00001778
00001c21
ffffcc0d
00003d5e
00003609
00002e4d
0000285b
fffff5b3
00000ebb
ffffffb7
00002934
00002a1d
00003ac5
000012b7
00001f5e
fffff235
ffffc7f1
00001146
ffffe861
0000287d
00000b22
ffffe27a
000014e9
ffffdc72
00001b73
ffffd4ea
0000298a
00000240
00001e8a
0000358f
ffffdafd
ffffeb15
ffffdc00
ffffde6a
00002ddd
fffff5a4
ffffee9c
fffffe4b
00003057
00000d16
ffffc6ec
ffffce34
ffffdec2
ffffc8a4
ffffeff4
0000037f
ffffd03b
00001b84
ffffd522
0000275e
fffff43f
00002ff1
ffffe6e9
fffffad0
0000001b
00000160
ffffd2bb
ffffd510
ffffe50e
00003723
000012b4
00000d34
0000441b
00003ec9
fffffc47
ffffd4f9
00002ef3
fffff5d7
fffff9b2
ffffcb75
00002eb5
ffffd92b
fffffef0
ffffc48d
00000c8f
0000363b
00000d17
ffffdc0d
ffffdb0b
00000c0e
00000e51
ffffec06
000021e0
000026ea
fffff4f4
00000347
ffffdd79
fffff60d
ffffe94b
ffffee57
00000d93
ffffe4df
000043c1
fffff0c5
00001a94
00000bbe
ffffd5ed
ffffe665
ffffc357
00000445
ffffd0aa
00000a31
00002c45
000017f0
00000095
ffffed3e
000044ef
00003838
0000066a
0000120a
ffffcb8a
ffffb342
ffffd2ca
00001512
00000f27
ffffe632
00000a62
0000052c
00003954
000016cc
fffff561
000001ad
00001831
fffffaf5
00000f31
ffffd475
ffffffaa
000025fb
0000140a
ffffdb69
ffffc7bc
fffffcc3
ffffef7d
ffffd847
fffff53b
00000d7c
ffffcc4c
00002123
000014c6
fffff672
ffffdfdf
000024ed
ffffc7d1
000027a0
ffffcbb5
ffffda01
ffffd3b8
0000066e
00002c2d
fffffa42
0000065f
fffff11a
ffffe5e8
ffffe0d9
ffffec8a
00002377
00001c98
ffffff42
ffffdb2b
00001193
00003cc0
00000277
000015cb
ffffd29f
ffffedcb
0000267b
ffffcfa0
00001a5c
00004b66
fffff193
00000e4d
0000136e
ffffe8c5
ffffd7b3
fffff526
ffffe94c
0000300e
ffffdbc4
ffffe8b9
fffff487
ffffda69
ffffcd78
ffffe137
ffffee24
000018a1
0000068a
00001bdb
00002a82
ffffe71f
00001627
000042a6
00004a67
fffff150
fffff9bb
00003f87
000036af
00004a31
0000570a
00002211
00003234
ffffd6ce
00003bad
000003f9
ffffff35
0000331b
000017a6
000010a8
ffffd33e
00001840
ffffd1ab
00002173
00001b5f
ffffc6ae
00001d31
ffffd0b6
ffffee9b
0000045e
ffffe8ed
00003692
00001cbc
00000b2e
00004bb5
00002f9a
0000447d
00004ea1
00004469
ffffd348
0000215d
ffffdbc3
ffffdd66
fffff143
fffff093
000026d1
fffff718
000037aa
ffffd7ec
ffffd26a
ffffeb86
000033cf
fffffa99
00000e1e
000013be
00000fb9
000016d0
00000bfc
00002995
fffff118
00002f77
000050e1
00004c18
00003aed
00005457
00003c58
00003dc3
00003da1
0000244d
000018a4
00002f0e
00000471
ffffdbff
000001bc
fffffc5b
ffffd7dc
ffffe497
fffff941
ffffec45
00003d46
00000ae2
ffffd08b
fffff8e4
ffffd139
00001486
ffffda2f
ffffefde
fffff833
fffff90a
00001c39
00002737
fffffb01
00003356
00003099
00003f77
000028e9
fffff03c
ffffe0b3
00003439
00000f1e
000022f7
00002f18
ffffcc4e
ffffd594
00000629
ffffc6ba
00003dbc
00002a6e
ffffd4f0
ffffc779
000008a0
00001896
ffffd547
00003c15
ffffe4be
000022d7
ffffee85
00004fd7
fffff978
00002e5a
00002229
0000227f
000038fc
ffffc9eb
fffff8e3
00003c01
000029b0
ffffc412
0000236f
ffffd4dc
00001d3d
ffffe93f
ffffdf61
00001cdc
fffff8de
ffffe868
00003956
00002f3e
00002d9d
ffffc3d9
ffffdf47
ffffcfcd
00002939
00001e26
fffff240
00001e92
00003c7e
00005630
fffff487
00001cd4
000031bf
000012af
ffffd03e
ffffe372
0000163f
0000057c
ffffca02
fffff5f4
00002ffd
ffffd4b7
00001bd3
0000207a
ffffcc61
00003e48
ffffc745
00001c40
ffffbfe2
ffffe8bf
00002d45
fffff4a6
fffffae1
000023f4
00002f18
00000d51
000002d5
ffffdfe4
00001db0
0000060b
00000c1f
00001488
ffffeb13
fffffa75
00002466
0000052c
ffffcb95
00000083
00001a4c
ffffd7b9
ffffd1de
00000031
fffffaf6
ffffecdc
00000c08
ffffc5e5
00003486
ffffda3d
ffffb92f
ffffbb15
00000221
ffffdc94
00002469
ffffbe8c
000002ed
ffffc244
0000060d
00000efc
ffffd2e6
000013dc
00001b80
fffffd17
00000b0f
00002771
ffffe549
00001df6
ffffdf5b
0000279c
ffffcaa3
fffff65a
fffff903
ffffe31c
ffffc612
00002ddd
fffffb9c
ffffdbc8
fffff06a
fffff8d7
000022af
ffffbd68
ffffd65f
ffffb75e
ffffeb1a
00001d76
00000f64
00001da4
00000dd7
ffffeca1
fffffb58
00001d6c
0000137c
fffff919
ffffcbf1
ffffd76a
fffff127
ffffc995
ffffe55c
00001074
00002842
000034b3
ffffe0e1
fffffa84
ffffe767
ffffbfb3
fffffe0f
ffffdbba
ffffdd75
fffff759
ffffbf54
000030fc
ffffcba3
00001eeb
0000123b
ffffcce6
0000372f
0000038f
ffffe67b
00002817
00002505
fffff931
ffffd4b5
00001ae2
ffffc029
fffff936
000006f4
ffffc7e5
ffffc9a7
fffff611
ffffc2fe
00000aee
ffffe341
0000215b
ffffca2e
00000db3
00002b1f
ffffffd3
0000454e
ffffe15c
000032cd
ffffd015
0000198b
000022ed
00000670
000015d1
00000295
00001932
000004c2
0000198c
ffffeee2
ffffc4b6
00000f47
0000232d
00001f57
ffffc0cd
00001486
000022c2
fffffce4
ffffe795
00003906
00000b60
ffffc4dd
00001136
00002226
ffffdba8
00002d90
ffffe918
00000f21
fffff7e8
ffffe619
00003bac
ffffd36a
00003a68
00001041
ffffcdfd
00000446
fffff318
000029ce
000039ad
00003790
00002068
ffffd6ea
ffffc2b0
ffffff6f
ffffe9ee
00002003
00000c88
00001ecf
0000308f
000018b9
000019f0
00001b8c
000029a6
ffffe5a4
00004b29
ffffd6cb
ffffec0e
ffffdf3f
ffffe61f
0000021e
00002334
000012f1
0000252a
00003e6b
ffffc784
00002482
000014e1
00003369
ffffdd93
000027f6
000035a1
0000116d
00000a54
00002f4a
fffff306
ffffd89d
000019bf
ffffe39e
fffff03a
ffffef57
fffffd82
ffffebff
fffff0cd
00002523
00003c09
ffffdfbf
00003fa6
fffff0f6
00002d3e
ffffe06b
fffff639
ffffe4e5
000027c5
ffffc1d7
ffffe548
00003626
fffffb2d
ffffe248
0000200e
00002e24
00003172
00002688
ffffe37a
ffffd60c
ffffddbf
000015e1
000028d2
ffffe6fc
ffffdcc6
fffffc07
00002416
ffffce39
fffff047
ffffe13b
ffffd809
00001b26
0000335b
fffff7dd
00000675
00001cff
000024c8
ffffeab4
00001b96
ffffc9c5
fffffdfc
ffffeba2
000027bb
00003a1c
00000002
00001db4
ffffc325
ffffd7a0
00001231
ffffc3c4
0000053b
00003e24
fffff4f7
00002b8f
00002388
ffffd951
000036de
ffffee47
fffff5de
ffffffc7
ffffd21e
ffffdcb2
000010f0
0000023a
ffffe6b2
ffffdf3b
00002e0e
00003f61
000013f6
ffffe6eb
00000000
00000000
00000000
00000000
00000000
00000000
00000000
00000000
00000000
00000000
00000000
00000000
00000000
00000000
00000000
00000000
00000000
00000000
00000000
00000000
00000000
00000000
00000000
00000000
00000000
00000000
00000000
00000000
00000000
00000000
00000000
00000000
00000000
00000000
00000000
00000000
00000000
00000000
00000000
00000000
0000291f
ffffd5eb
ffffe954
00000b36
00002587
00000dfb
fffffe8d
00003b63
00001e04
ffffc9cd
00003ff7
ffffe644
fffff411
00003e03
ffffec87
ffffe54a
00000045
00000fb3
0000181a
ffffe79b
ffffe397
00003a3f
00001116
fffffb62
00002880
00001a64
ffffc476
00002151
ffffcec7
00002165
00000cdc
00000a30
00001c64
00000506
0000192d
00000073
ffffeec1
00003472
fffffc8d
ffffdbc9
ffffcd93
fffff26d
ffffd7e7
00003a74
ffffe1b3
00003983
ffffe58c
00002ae1
00000d0f
00000789
ffffc9f9
000009b9
ffffde1e
ffffd2f0
ffffd925
00003976
0000139b
fffff506
ffffdeaa
000006f8
00001670
000031d1
ffffd464
00001db0
00003490
ffffc04a
ffffc61e
ffffc3da
00003b4a
000007a9
ffffe7d8
ffffc516
00002266
ffffc712
ffffcba9
0000129b
ffffd3f6
ffffe518
ffffeaea
00002a0c
00003942
00001d5d
ffffecf3
ffffcc69
fffff929
ffffdced
ffffff21
fffff2e6
000016b6
fffff8aa
ffffd13e
00002413
ffffe8c0
fffff40e
ffffd784
0000001f
fffff922
0000065d
fffffd16
000029af
00000d5c
ffffdc14
fffff311
00003c7f
00001e40
fffffec3
ffffdc18
000000e8
fffff8e4
00001f97
ffffed88
00001fff
00003154
fffffc0f
000024c6
ffffc950
ffffe7b1
0000239a
00000705
ffffc32a
ffffd38c
ffffc05a
ffffcbe4
ffffc1e9
ffffe3d1
ffffee69
ffffcf10
00001f23
00003906
ffffcc27
ffffdb6d
0000333c
ffffc46b
ffffe4d9
ffffcd82
00002b52
ffffe6ad
ffffd09e
ffffe339
00002909
ffffd5f0
0000221f
ffffedd5
ffffe89d
fffff7b9
ffffc90c
ffffdadc
00003ad5
ffffe30c
fffffd95
000034b3
00001090
fffff105
000005d8
00000a90
ffffe186
00001bce
ffffe85e
ffffd2ae
fffff823
000007a4
000020bd
ffffe057
00000beb
ffffdffa
ffffe699
ffffcb79
ffffdaea
ffffdda2
00001c19
00003f5a
00003c47
000039dc
0000233d
000005e5
fffffbc2
ffffc003
ffffc68c
ffffd9fa
ffffddfa
00003943
00003652
ffffead8
ffffde16
ffffe5ad
ffffe366
ffffbff6
ffffe984
ffffdfe8
fffff5d4
00000ffc
0000133d
ffffe1eb
00000edd
0000142f
ffffd316
0000133b
ffffeea6
ffffd31f
fffff239
ffffd048
fffffeb4
000037d0
00001291
ffffe1a4
fffff362
ffffbf31
ffffe1e3
ffffe1a7
000031e6
ffffd817
00003496
fffff2a9
00001bc1
ffffc8f6
ffffc91c
000032ce
fffffe8c
fffff864
000006bb
ffffde74
ffffdaef
000004c3
000019b3
ffffe3c0
000006d7
00002612
00001387
ffffda7c
000015d8
00001568
fffffb6c
0000212a
00000375
ffffffc2
fffffea9
00000e25
ffffe2e9
00002f4a
00002234
fffff2b5
ffffcd79
00000914
00001beb
000021f8
ffffc4e9
00001790
00001ce2
ffffd140
00001a41
00003c59
0000182b
ffffe0a9
00002ec0
ffffccac
0000134e
0000111d
ffffc486
ffffc207
00001ffb
00002213
00001447
ffffe6c2
ffffc50c
0000088e
ffffc49b
fffff7d4
000028ba
fffff216
00000846
000016ad
00002cd6
000002b9
ffffc235
ffffec7e
000039ef
00003817
00002c2c
00003cf7
fffffa1a
00000996
00003976
000016f1
ffffc329
ffffcc01
ffffd090
fffffa9a
00003086
ffffeb62
ffffc904
ffffea01
00000588
000025d8
000002aa
000030ba
fffffb38
00003039
000028b1
000025fe
00003079
ffffe0b9
ffffd2a2
ffffea9f
ffffd741
000006af
00001c76
00003980
fffffe93
00000651
00002bec
00002dde
0000150e
000003e2
000000e0
000015a8
ffffee1b
0000234f
0000287a
0000262b
fffff73f
ffffcf67
00003b0d
00000650
ffffdba3
0000026f
000026cb
ffffc194
00000b3c
ffffc41c
ffffd124
ffffe707
00001a29
00003802
fffff6ed
000020c7
00002048
00003e73
ffffc34f
ffffe6f7
00002028
ffffc0f1
00001405
ffffcfc9
fffffc6e
00000d71
ffffe5d6
0000135c
00002c88
fffff7b4
ffffc3cc
ffffc0ba
ffffe264
ffffeba6
ffffca04
ffffcdd7
0000082c
0000139e
0000277f
00003785
ffffeaa7
ffffcad4
ffffcc4e
000025e1
00003ba1
00000107
00002e54
00003ce7
ffffc68b
00002b97
fffff08e
000038ad
ffffe7b9
ffffe4e9
ffffcfa3
00001016
fffff399
ffffd19d
ffffc177
ffffc32e
ffffc458
ffffddf6
00000ff4
ffffc31b
00003422
000007b2
fffff263
fffff93f
ffffd9d6
ffffd46a
fffffd4d
fffff597
000032d5
fffff413
000019f2
ffffc9b7
ffffdd6e
ffffda73
ffffebc6
00000aec
00002720
ffffe527
00000958
ffffe373
ffffe372
0000309b
0000378f
000015ca
ffffd3da
ffffe3ab
000019e8
00001656
00001a80
ffffbeb2
00003521
ffffd6e7
00001423
00001451
ffffd690
ffffc5ee
ffffde27
0000075e
ffffc9c8
fffff740
00003a13
000012e9
00001406
ffffc384
000030fe
ffffca74
00000bad
fffffacf
00002aa3
00001520
fffff816
ffffc21a
ffffce07
000009ad
ffffb867
00002dee
fffff297
000003d3
00002357
00002c1b
ffffd419
ffffe8b9
ffffdec4
00001a79
ffffcb3e
fffff339
fffff662
0000120c
ffffea92
fffffd4d
ffffeaac
ffffd30f
000015ab
000028f2
ffffdfa0
00002be6
ffffd09c
ffffd201
ffffdb3f
ffffdaad
00001a61
ffffe4d7
ffffe650
ffffc9fa
ffffffe2
ffffea57
ffffd388
0000366a
ffffd5e1
00001069
ffffdcdd
fffff9cb
00002239
ffffcf90
0000090e
ffffcb95
ffffdd2c
ffffd630
ffffec0b
ffffe231
fffffe5b
0000157f
ffffe41d
00000d62
fffffd72
00003127
ffffe105
00003afc
ffffe7a6
ffffc356
000006d6
ffffda1d
ffffe341
fffff4cf
fffff124
ffffdabc
00001971
000014f5
00002047
ffffc454
ffffcda2
0000102b
ffffda31
000016e1
00003c2e
ffffce01
000022b6
ffffc5a2
ffffbff8
ffffd4b3
00001760
fffff96b
ffffdafe
00002f8d
fffffdba
0000066f
ffffecf5
ffffbe1f
ffffc08f
00002592
000032e9
000019d8
000016b2
ffffc8c0
fffff264
00002442
ffffeb0d
ffffe235
00001d50
ffffd0e3
000020a6
00000c4e
fffff3ab
0000068c
ffffd476
000019f7
00002c22
fffffe68
000038ee
fffff686
000026b7
ffffcdc9
ffffe579
00001e6a
00000c95
00000348
ffffe058
fffff003
ffffef2b
ffffe24e
ffffe829
fffff72b
00000cdf
fffff332
00000e0c
000018d7
000036b7
00000fba
000028bc
00001dc8
ffffc02f
ffffd1c0
ffffe63d
00000c39
ffffed06
00000cf4
ffffd9b3
ffffea5f
ffffc201
ffffe8c0
00001769
00001711
ffffdde5
0000342e
000025e8
00002c8a
000002ab
000036d2
000028ec
ffffef63
00002afa
00003963
ffffd64c
ffffe05c
ffffc335
0000096e
ffffffb5
ffffff29
ffffda00
00003989
fffffd3c
fffff339
fffffc05
00003464
fffff930
ffffc870
ffffe69f
ffffc15d
ffffd023
00001699
00001923
00000352
ffffdde2
ffffd81c
00002e80
0000395c
0000198b
ffffe0e8
ffffffa4
ffffe56e
fffff349
fffffe29
000038a1
000032b1
ffffd690
ffffc0ba
00000f55
ffffdfa9
000036cc
00002ea1
ffffea3c
fffffb20
0000279f
ffffe40e
00001a6a
ffffed01
ffffeae0
000004aa
00000b68
00001911
000011ca
0000382c
ffffdbb8
fffff70e
ffffdb57
ffffc5cf
00003173
fffff012
00000042
ffffe5a9
fffffffe
000007aa
0000016b
00002115
fffff59f
ffffdb1e
000000ba
0000261e
ffffd6e0
000028ee
000035f8
00001ea2
ffffe12e
ffffc058
00000d61
00003451
ffffc019
ffffe59c
ffffe234
000006e4
ffffd457
ffffc2ba
00000718
ffffdc02
fffff1d2
00002534
00000e43
ffffe98b
fffff885
ffffea4e
ffffe4d7
ffffec86
00002e39
00000708
00000294
000009f7
000018df
ffffddfa
00000015
ffffe96b
00000f16
fffff2c2
fffff804
00002f40
00002116
000027f2
00002d62
ffffd80a
ffffee71
00002713
ffffc11f
000034fc
ffffe79e
00000111
000013fb
00000813
fffff9fb
fffff7b6
00001e91
000008ce
ffffe9d4
00003cca
ffffffa5
ffffca63
000031ec
ffffed90
ffffc1ea
ffffccfb
00003077
000038ab
00000991
00002516
00003887
0000324a
000015b9
000017f2
ffffd56a
0000152f
00003454
0000161b
ffffe6df
ffffebdb
000018e5
fffffe2e
fffff57c
ffffe649
ffffd67b
000000b8
00000d1c
000009f9
ffffd2a9
ffffe177
00003baf
000032b0
00001e97
ffffd4a9
ffffcf19
00002479
ffffbf5f
ffffcd56
fffffa52
00000ec4
00000f9b
ffffe01a
00002c0c
00000e91
00000564
0000380a
ffffc46f
000007e4
0000279e
00000e1e
00000865
ffffe94a
0000054d
ffffcf17
00002ead
000003e9
00000625
00001203
ffffd893
00000b80
ffffc4fe
00000bbe
000004e7
000035d7
00002bbc
000030a4
fffffcde
ffffca81
fffffd3a
00001aa0
000033d0
000002fb
000019bf
ffffe49f
fffffe6b
00003356
00002e17
00001f97
000001df
00000000
00000000
00000000
00000000
00000000
00000000
00000000
00000000
00000000
00000000
00000000
00000000
00000000
00000000
00000000
00000000
00000000
00000000
00000000
00000000
00000000
00000000
00000000
00000000
00000000
00000000
00000000
00000000
00000000
00000000
00000000
00000000
00000000
00000000
00000000
00000000
00000000
00000000
00000000
00000000
00003106
ffffdbf5
00001d01
00002b9f
fffff9ff
00002d29
fffff340
0000318d
0000218b
000034ac
0000276b
ffffdd07
00000ccd
ffffc5dd
ffffe80a
00003730
0000145d
000039d9
fffff0da
ffffd12c
00000cc6
0000199e
ffffe35b
000024c6
000016f6
00002407
fffff782
0000303e
fffffafb
000034a5
00003c32
000016b6
ffffd722
fffff9ec
000011f8
00002d2b
fffffa65
ffffc375
00001741
000031cc
00000f91
ffffc1c4
00002e90
ffffd38f
ffffed2c
00003777
00001dc6
0000370d
00001d72
fffff333
00001fb3
fffffdc0
00001b47
ffffed65
ffffdc71
000012ec
ffffec29
00002d37
ffffd158
00002caf
ffffc10a
ffffc5e8
ffffd826
0000348f
fffffd0f
00001d98
00001c2f
0000335e
ffffcbe2
000006c9
00000eb7
ffffe0e5
fffff9ea
ffffcbc7
ffffcad9
00001621
000032ea
ffffcbc7
00002f7c
ffffc7aa
00001bf6
fffff299
ffffd41a
00003f82
ffffd931
00002939
ffffdb0b
000018e6
00002bca
00003fd1
00003146
fffff7b8
ffffc5ac
fffffedf
000041c7
00001210
000033d2
000033f4
ffffedc0
000007c1
00003caa
fffff93a
fffff19f
00000109
000029e0
0000470a
fffff63f
00001831
fffff05a
fffff348
ffffeac5
00003882
ffffefd6
fffffdb8
fffff9fd
00000483
ffffeb1f
ffffcbf1
ffffea9f
fffff356
00000272
fffffa09
ffffff51
ffffcf22
000033bb
00002748
ffffd337
00004624
000022bb
fffff102
00004560
000025f8
0000064a
ffffdd24
ffffd3e5
000021b9
ffffc875
ffffd726
00001ac1
ffffc6e1
00002128
fffff357
00001dcc
000004c4
ffffeb17
00000ca2
ffffcc8b
fffff7b9
00000c4c
00003b29
ffffebae
00002bb7
000009bf
ffffde38
ffffed93
ffffd747
000020b9
000017dd
00001056
000027fb
00002eb8
ffffea3e
00003cba
000012e6
fffff077
00001ea1
0000058e
00001f50
00001df1
000029e1
00001425
ffffd843
ffffda46
00001994
00002fe1
0000033b
00000042
00001d3a
ffffd913
00003396
00001ca7
000002ca
0000144d
00001e0f
fffff4c4
ffffd739
ffffd1d0
fffff78e
ffffdfec
ffffd810
0000090b
000015af
00001bf2
ffffdc29
ffffed90
fffff9bf
00002a64
00002af9
ffffde35
fffff262
ffffef19
000028b8
000022d2
fffff175
ffffef29
ffffe538
00000217
00002d43
ffffd736
ffffe575
fffffb38
fffff181
00001baf
fffff155
000020d4
ffffc026
ffffc9cc
fffff56f
0000111b
00000497
00000d7c
ffffde70
ffffec23
0000062d
fffff887
ffffe25a
ffffd785
ffffd30a
000020e5
ffffc4e2
000036de
000007f8
000026b4
000023bf
000022e7
ffffead3
fffff25b
00000c94
fffff620
ffffdbc4
ffffd520
00002eca
ffffcd96
ffffdf01
ffffb36c
ffffeaf7
ffffe6d6
0000050e
00000ffd
fffff7dc
00000fc3
00000919
0000057c
fffff923
0000090e
ffffcb23
000038b8
00000454
ffffe435
0000280c
fffff8f0
ffffc752
ffffe7f4
00001215
00003012
00000c94
000006ff
ffffd8a3
ffffe117
fffff931
ffffcfcf
fffff276
00001115
ffffe10b
00000367
ffffb1fd
000022d6
00000afa
00001105
ffffcd18
00001c61
000006c3
ffffc0e3
0000211f
00000698
00000309
ffffc87e
fffff89e
00001bf7
fffff28c
ffffd71c
fffffbab
00000dbe
fffff07a
00002647
ffffe429
fffff292
ffffe0c2
ffffc156
ffffcc70
ffffd8c0
00000116
000018db
000025cd
00002059
000036f9
ffffe5e0
ffffcbcd
ffffc895
fffff453
ffffdea9
fffff45a
ffffd173
000032b2
00002305
0000083b
00001328
00002a7f
00003e4f
fffff869
00001a9f
ffffd03e
ffffce2b
ffffe157
ffffe72f
00000f08
00002384
ffffc857
00002132
000009e6
ffffc9dc
00001db7
fffff870
ffffc146
ffffe84f
00000b35
0000203a
fffffb4b
000006a7
ffffe5a0
00000d3c
000026e1
fffff20f
000028c3
ffffe4b8
00002676
ffffd7ce
00001713
ffffec15
ffffd33f
ffffc60f
ffffef78
fffff6a3
ffffdd23
000013e7
ffffc7ca
000010c3
00002b28
ffffc7c8
00002c03
ffffdb05
ffffe613
00002abe
00002145
0000061f
fffff14a
00001f23
ffffe9aa
fffffd8e
fffff067
00001ac6
ffffd641
fffffe28
fffff27b
fffffc19
ffffe986
000034fd
ffffe1b8
ffffcae6
00001eec
ffffd117
000031d6
ffffd7ce
000004a1
fffffae5
00002cab
00000123
fffff1e3
0000319f
0000260d
00002cc8
0000339b
00003875
fffffaa8
ffffed98
fffff536
000026b4
ffffe17f
ffffd2bb
000037ca
000030b6
0000215e
0000105f
0000198a
00001a68
ffffe06a
00001962
ffffe134
000033ff
ffffe582
ffffe5dd
000048af
fffff96e
fffff34d
0000394d
000038a0
ffffce1f
00000940
00003336
ffffde88
0000399d
00003c99
0000205c
00000555
ffffc23f
0000022e
00000279
00001406
00004591
00004827
00002249
fffffe21
ffffeed3
00001b59
ffffdcb9
0000336d
00004417
00001d5f
ffffed0c
ffffe36f
ffffe0ad
00001390
ffffe6ad
ffffe42c
ffffcc1c
fffffe00
ffffd9bb
fffffc97
000029bd
ffffc92f
00002abf
fffffc52
0000323c
ffffd4bc
ffffe2c2
000043e8
0000351c
000048f3
00004dcd
000027c8
000033c0
00002f85
000034a7
ffffd2ae
ffffe5c4
000021eb
000015bb
00000dd4
00004a81
00003207
0000120c
00002f53
ffffcb2c
fffffc5e
fffffae7
00002c0a
ffffce28
ffffd1ac
00000693
00000cba
fffff2f6
ffffd02f
fffff824
000007f4
ffffe3b3
00005558
00002ce3
0000447a
00002fc9
ffffdc1e
000050dc
ffffec69
0000187a
00000c33
00000539
0000309b
ffffe6b1
00000d79
fffffce8
00003de4
ffffcec3
fffff425
00003c11
fffff915
ffffdbb2
00000603
000019cd
fffffd70
ffffe721
ffffcd12
000002f6
00004420
ffffd8d7
000042fb
000026fb
000043a1
0000388f
00001e4c
ffffed17
ffffe4ef
00003745
00004df6
ffffe200
ffffd74f
00002536
000034f9
ffffe99c
ffffc71f
00003f02
00002d11
ffffee8b
fffff5bf
ffffc1c1
ffffe809
0000126e
000005e4
00003a0e
fffff837
ffffee56
ffffd1b2
000025d2
000027fa
00004022
0000224f
0000557d
00001c9d
ffffdafb
00004657
ffffe644
000047da
fffffaca
000032f1
ffffccf5
00000be5
00001e2b
00003ff9
ffffde07
0000041c
000035b4
ffffffe3
fffffc8e
00003312
00003bc4
00002698
ffffc57d
00003656
ffffc9fe
000006b7
000022a4
ffffdbc0
00003edc
ffffebe9
00003788
00002001
00000cfa
00001832
0000123b
fffffac1
fffff6a0
000030da
00003d1e
ffffd7d3
ffffeed2
00003fbc
fffffd0e
ffffd1f2
0000088b
ffffc671
ffffec5a
ffffcc12
fffffc3a
00000c1b
0000087f
00002783
ffffc27c
00001858
00002678
ffffdc4e
000040a6
00000c0c
000021b2
00004bb4
00003d9a
0000160b
00000fea
00000487
00001d6f
ffffd780
ffffe0c0
fffff950
ffffd0ee
00001340
000037b0
ffffe55d
ffffc123
ffffe03b
0000271e
00001ade
ffffd1e0
00002b6c
00003b81
fffff192
00000b6b
ffffed50
fffffc33
ffffe9d2
ffffde66
fffff7bd
00002fb4
ffffc089
000033bb
ffffdc52
ffffe61e
00003372
fffffd7e
fffffa85
ffffca48
ffffd5b7
0000013d
ffffc664
000015fe
ffffc764
ffffd3d6
ffffcd74
00003204
00001f9e
00002845
00002e7f
00003c34
fffff35f
0000074e
ffffde24
0000226e
fffff13b
fffff40b
ffffc6cf
00000831
ffffb68d
00000a2b
ffffd903
0000018c
ffffe478
ffffc7c6
00001b82
fffff6ea
fffff616
ffffea91
00001e44
0000030b
ffffc122
000028c8
00001514
0000164a
00002756
ffffe52b
ffffcfb8
ffffe474
ffffc7a2
00003043
000010e5
fffff7fb
ffffd30f
000017b3
fffff3ca
ffffbf66
ffffbcc9
0000373d
ffffb5c8
0000280a
00002a44
ffffe1a6
fffffb92
ffffe747
ffffd9e2
00003baa
ffffe4a7
ffffd90e
000004dd
000031b0
ffffe70d
ffffcafc
00001538
00002ac3
ffffea18
ffffcedb
ffffc05c
ffffe515
ffffc809
00000b69
00001f7a
00002448
000032af
00000887
fffff418
0000088c
00001259
ffffc389
00002240
000017ab
ffffe33c
000002dd
ffffd98a
ffffe4fa
ffffe59e
00000995
00000ca2
ffffcd7b
00001e2b
00003c93
000022e5
ffffc6f3
ffffc310
ffffde85
ffffe879
000016d8
00000a12
00000303
ffffea2c
00002504
000034e3
ffffc9a3
fffff507
000006d6
ffffe8d2
ffffefdb
ffffda17
00001ce5
00000ad7
00001b75
ffffec1c
00002d26
ffffe22e
ffffe06e
0000041c
fffff57c
ffffe71a
0000264f
000012e8
ffffea15
fffff082
fffff6e1
00003958
fffff38f
ffffc3e1
ffffcbe0
ffffc33b
ffffd372
ffffffe5
000033c7
0000197d
00003a41
00000f58
00001027
ffffd112
00002840
0000389b
00002582
ffffe5fa
00003e10
000000cc
ffffd305
ffffe92d
ffffde5d
00001391
00000000
00000000
00000000
00000000
00000000
00000000
00000000
00000000
00000000
00000000
00000000
00000000
00000000
00000000
00000000
00000000
00000000
00000000
00000000
00000000
00000000
00000000
00000000
00000000
00000000
00000000
00000000
00000000
00000000
00000000
00000000
00000000
00000000
00000000
00000000
00000000
00000000
00000000
00000000
00000000
fffff165
000008f5
00003d49
000000ee
ffffd0e1
00002fd8
000016fa
00002673
fffff8a7
ffffc3f4
00000de0
fffffeb2
ffffd1a9
fffff5af
ffffc6ad
ffffe22f
00000ee4
0000030b
0000304f
00001a72
00002712
000032d7
00002b8b
fffff58a
000002b4
00001bcf
0000307d
00001f60
00002600
ffffd5dd
00000487
ffffc8c7
000021d2
ffffc797
ffffc9fb
0000247e
ffffd08d
ffffd341
000012f3
ffffd867
0000314e
ffffdf99
ffffd70f
0000380a
00001b7f
00003294
ffffe624
00003e46
00002f30
00002277
fffffe0e
ffffeffb
000036fc
ffffeb30
fffffd41
ffffd742
fffffe03
ffffe2fc
ffffd68e
000004b7
00003239
ffffcd69
ffffcd7b
00003b58
ffffc2c9
ffffd1a4
ffffed5b
fffff086
ffffc8c4
0000137c
ffffeee7
ffffe1f6
ffffd06a
ffffc598
0000019d
ffffde18
ffffe3f5
ffffcfdb
ffffdc40
000025de
ffffd05d
00002cc4
00003af7
ffffd642
fffffb11
ffffcae1
ffffe54e
ffffee2e
fffffccc
00002c56
ffffda79
00000a22
fffff14d
000022e6
00003e6d
ffffe2ca
00002303
ffffffa2
fffffaea
ffffd786
ffffd375
ffffd04c
00000355
000025b2
fffff1ee
ffffefb9
ffffc510
fffff5cf
0000234a
ffffe674
0000231d
fffff078
0000387d
000019c9
000020b9
000025e4
000038a7
00002037
fffffbc4
00001b24
ffffcf2d
ffffcadb
00000409
ffffe8b5
000033d0
0000068e
00001de3
ffffef6d
fffffe5d
00001d93
00002945
ffffe7ae
000005c4
00002b65
00000fa6
ffffe252
00000333
0000064a
000030b8
ffffebd8
00001972
0000251c
000002e0
ffffc0a5
ffffedc1
ffffce33
00003783
000005aa
fffff976
00000b56
00000cad
00004aee
ffffd83a
00000fd4
00001600
00003b60
ffffe181
000034cd
00000bc3
00002322
000022b7
ffffe88b
000001eb
00003ac5
fffff555
00003f15
00000c16
0000293a
00002f82
ffffcd9b
ffffc1e3
00002f1c
00000547
fffff35e
0000217c
00001ea4
00003723
0000350c
00000311
00003ce3
ffffeb79
00005343
fffff252
000021f3
00002b70
fffff507
0000402d
ffffe6eb
00002533
ffffe2e4
ffffea10
0000200f
ffffcc7f
ffffd8fc
ffffc666
0000108c
000034a8
00001ce8
00000fb1
000008f8
ffffebef
00001bb9
00003dcc
ffffd2b3
fffff391
fffff450
ffffd4a1
fffff4ef
000047e1
00003f34
00001950
00002961
000037e8
ffffd8a5
00003f31
00003c1d
00001bd4
00002d42
ffffd7b9
00002949
ffffe865
00000bbb
00003407
00002183
000022d2
00003d82
00003756
00000bb2
ffffffd8
ffffdb9d
ffffdcc6
00000005
ffffda89
0000480b
ffffd53f
ffffe7f9
fffff579
ffffff6c
00002db4
ffffeb29
000011e7
ffffcea3
ffffe502
00000f1d
00000880
ffffde18
ffffd771
ffffee91
ffffc75a
00003a6a
0000311b
fffff384
00002d6e
fffffe1a
00001bfa
ffffdb94
ffffec1c
00002c79
00003685
ffffc557
00000841
00003deb
fffff747
0000161c
ffffdf42
ffffda8c
00001e86
000030ba
00001237
0000111d
ffffd9fe
00002a5d
00003998
000039dc
fffff745
00003ec5
000022b8
ffffd737
0000019c
00000565
00001ecd
00002fe7
ffffd133
000026c5
ffffcbd8
000027e4
0000246b
000017e2
fffff7a7
ffffe823
ffffece9
fffff441
ffffbd4d
ffffd8f9
ffffcde9
ffffe899
ffffd7cf
ffffd6ad
00003fe7
00000952
000013f8
ffffdbef
000029b9
0000079d
000035b0
000001ed
ffffe2e1
fffff6bc
fffff94c
ffffc7ad
fffffafd
00000999
00000ed1
ffffd36f
ffffd08c
ffffc2bf
0000393c
ffffd718
ffffc512
fffff5b7
fffff9e9
ffffde25
fffff168
ffffb649
fffff908
00000c57
fffffae6
00002cf9
ffffea2d
fffff35e
00002eac
00002129
ffffdc61
0000255c
ffffcd08
ffffe6ca
ffffc190
00003c14
ffffd804
ffffd926
ffffc856
00000fca
fffffdda
fffffa32
00001eac
ffffcd6f
00002432
ffffcb80
00001b73
ffffa922
ffffff3c
00001843
00000010
00002782
00001df6
00004570
ffffe6e4
00001d26
00002c0f
fffff880
fffff4ba
000007bc
ffffd3ce
ffffd42d
00002f5a
00003db2
fffffe80
00001629
fffffef8
00001b8d
ffffd3c5
ffffb7e0
00002d56
00002b52
000004fe
ffffe54c
ffffe99a
ffffb87c
ffffdd6e
00000fee
fffffafe
000039cb
ffffea58
ffffe8c4
ffffe64c
ffffe1d0
00001de0
00002ff7
ffffbdf8
0000200c
ffffd0d6
fffff121
00002e06
00003602
ffffc3c4
ffffdfd9
00000163
fffff5d2
ffffe2a2
00000a2d
00000fbc
fffffc83
ffffd918
000033f1
00002ea2
0000153c
00001ea6
ffffc53e
ffffeedf
000028b9
ffffe814
000012fc
ffffe179
fffffc54
ffffdbe6
00000951
ffffce91
00002f8d
ffffc814
00001d5b
ffffcd59
ffffdd57
0000345f
fffff31a
ffffe428
0000128d
ffffcba8
00000d93
ffffd7a6
00000ec6
0000301f
00000c4e
00003083
00002118
ffffe401
fffff13e
fffffdf8
ffffcff9
00000374
ffffcdfe
00001d3d
00002a82
ffffec74
ffffe41e
000030d4
00001792
ffffff5e
000005f4
00002483
ffffc90e
00001155
000031b3
ffffec00
00003431
ffffcfd9
000021bf
00001ff4
fffff648
00000b7a
ffffef70
ffffedfd
000019a5
ffffdd77
00004416
000045fd
000021d7
ffffefa4
0000065d
ffffc516
ffffbb22
ffffb721
00001b54
00000c56
ffffcaf1
fffffeed
00000f9b
ffffc9df
ffffe7b4
ffffc562
000027a0
ffffd1c8
0000133a
ffffed86
000003ec
00000dab
fffffc6f
ffffe725
00000515
0000178c
ffffe6c4
00001cc6
00002667
ffffe908
ffffe9d2
ffffdfdd
ffffe3ae
ffffcdc0
0000067b
0000314c
fffff869
000023d8
00002e76
ffffc82d
00000bba
ffffe4b7
fffff00c
fffff8a2
ffffc35e
00000f25
00001d5b
000027bf
ffffd4ab
000013d2
000029fc
0000386c
00003c53
00000b65
000031c3
0000332a
ffffd608
00004eb3
ffffdb82
ffffed26
ffffedac
0000186d
00002c61
00003a4c
00003b4b
0000207d
00000433
ffffd6e7
ffffd9df
ffffede1
ffffefbb
00001f05
000019da
00002d60
000022e3
ffffd24c
fffffa94
0000327f
00003482
fffffbf3
ffffecf0
000029a1
000021e0
ffffc7a2
00000bc1
ffffd28c
00002c2d
ffffcbe3
fffff0e6
0000376d
000022f6
ffffeba6
fffff74c
ffffe259
000006fd
0000249d
fffffabc
00002cf5
ffffe10f
ffffe5ed
00003a25
fffffd58
00002cce
00003495
000043ff
00003e35
fffff053
00003a00
ffffe22b
00002f91
fffff66c
fffffce1
ffffd04c
ffffc26e
00003637
fffffbba
fffffaad
fffff3c9
00001706
ffffd548
0000241e
000035d0
ffffeb9d
ffffdc8c
00001e92
00002a21
fffff742
ffffc51b
ffffdf2b
00001929
0000094d
00003f86
ffffe7b9
ffffd132
ffffe776
00002927
ffffbba2
ffffbae3
ffffda01
000027aa
ffffe58d
ffffc9ee
00003b18
00001b4c
0000417b
ffffff37
ffffda72
ffffe197
ffffd0e2
00002de9
00001d05
fffff194
00003b2e
ffffe2d7
000031bb
ffffc222
00002227
ffffc84b
00000b19
ffffc885
ffffd874
00002806
0000399e
000006b7
ffffe589
00003954
000002ae
ffffde29
00003399
ffffcac3
0000162d
ffffd5ea
0000113f
000002d9
00000436
0000314b
00003fbf
00002d30
ffffe548
ffffc713
0000171d
ffffe77d
00002361
ffffccd1
00001c7d
ffffc81a
ffffdccb
ffffd9bc
fffffab9
00002703
ffffcec7
000005b8
00001b10
fffff2ce
ffffdaaa
fffffd15
ffffeed0
000024fb
0000382e
ffffd628
00003a47
fffffe53
00000969
00001b12
0000051a
ffffe2e1
ffffdbc6
00001124
ffffe8ec
00000f1a
00002682
ffffd94c
ffffcb60
ffffeda0
0000019d
ffffd82f
000021b3
ffffd47b
000037ff
ffffeb8b
00002cc2
fffffc3f
fffff5a7
fffff64b
0000209d
ffffcb6b
00000464
ffffd2f7
00002e12
ffffef2c
000011ac
ffffe37c
00002862
00001d1c
ffffeb01
ffffe6a9
00000f5e
00001eaf
ffffdbde
ffffc3af
ffffff48
ffffffb5
ffffdb81
ffffca7a
000017c1
00001781
00003747
ffffdc9f
ffffea22
ffffc23f
ffffe0e5
ffffea74
ffffe048
ffffe5a8
ffffd0ee
ffffd634
ffffd56a
ffffcc35
ffffefb0
00002993
ffffd2d2
fffffb8a
00003e1c
ffffe6a8
00001a70
00001bb0
ffffdb00
00002fd1
00003a36
00001955
ffffcde7
ffffc6d7
00001675
00003889
000017a7
ffffe0c5
ffffe999
fffff344
00000091
ffffc54b
00000453
ffffc161
ffffdc45
ffffea19
ffffdeaa
00000408
00000fbc
00002910
ffffc704
00001ede
0000128c
ffffe19b
ffffe0ca
ffffe4af
00000dd8
ffffd656
ffffd11f
00000915
ffffd3cb
fffff3af
000038fc
00000491
fffff211
00001e66
ffffc71b
00002c87
00001c10
00001969
00001899
ffffc77f
00000a1c
ffffe643
ffffecc4
fffff641
00003387
ffffc7c2
ffffccb3
00002fc2
ffffc591
00000c6a
00002dee
00000000
00000000
00000000
00000000
00000000
00000000
00000000
00000000
00000000
00000000
00000000
00000000
00000000
00000000
00000000
00000000
00000000
00000000
00000000
00000000
00000000
00000000
00000000
00000000
00000000
00000000
00000000
00000000
00000000
00000000
00000000
00000000
00000000
00000000
00000000
00000000
00000000
00000000
00000000
00000000
ffffe9fe
ffffcbdf
0000086e
fffff234
ffffca58
ffffe8ae
0000106c
fffff99b
00001958
ffffe4ce
00000129
0000057e
ffffc082
000000b8
fffff34e
fffff62e
ffffcd6f
ffffdb2b
00001685
00001fd6
ffffef91
ffffd626
ffffc68d
ffffc9aa
ffffc989
ffffce34
ffffd19d
ffffc57e
ffffc629
00000afb
0000199e
000031b2
00002ec8
ffffe293
ffffcf2a
00002fa1
ffffcea5
ffffd837
ffffe737
ffffc285
00003b66
fffff5f7
fffff524
ffffcba2
ffffe59b
00003bd8
00002c0d
fffffe8d
00001d6a
0000224f
fffff5b9
000017e8
ffffd596
000007c4
00001072
ffffd5a4
ffffe89e
fffff5b3
fffff534
000025f0
00001b45
ffffd54b
0000238f
ffffe04f
ffffe77d
ffffe0d5
ffffdf29
000018c1
fffffaf4
fffff12c
00000aca
00003fec
00003b11
00003c30
0000376a
0000224a
ffffd643
000023ce
fffff154
00003cb5
fffff2d1
fffff3ea
000034c2
fffffae6
000011a6
000031c8
00000e5a
00003c20
ffffde35
00003200
00002a2b
00000e05
0000332d
0000294e
ffffe8c8
00000f3e
ffffddb6
000004a2
00001335
fffff592
00003b1d
ffffd74c
ffffe3ad
00001358
000031f8
ffffc0be
ffffee48
0000368a
fffffa48
ffffdee7
ffffe04f
ffffea8b
0000243b
ffffd717
00000046
00002804
00003727
00000911
ffffd17a
fffff276
00001a97
ffffd713
fffff885
ffffff87
00002e17
000054f7
fffff70d
00001a3e
ffffe7c2
00003598
00000193
ffffe50a
ffffcc76
ffffd7ad
fffff1ca
ffffd65a
ffffbefe
fffff6dc
000023de
000033db
ffffd745
00001e03
0000046f
000002ec
00002f98
0000278b
00001c7a
ffffe2aa
00002f17
00000871
00004ec0
00002c8e
00000305
00000667
00005497
000011a5
00002147
00003a36
00001389
00002df9
0000341e
00000dbf
ffffc6a6
000027bf
00003238
fffffb23
fffffa18
000030cf
ffffeea1
ffffe78d
00001a56
0000067f
0000015f
00000a02
ffffc806
00004014
00002dd7
fffff876
00002120
00000730
000037b2
0000114a
0000427b
000058bc
fffff50a
00003846
ffffeaa0
000000a2
00000551
000004b3
0000153a
fffff243
000004eb
ffffdc27
ffffe095
000009a3
fffffac4
ffffd555
ffffc8ec
ffffe90e
ffffca19
00003332
00000631
fffff310
ffffe8c6
ffffd65a
00000650
ffffe190
00002dfa
ffffea1d
ffffeb7a
ffffe988
ffffdca6
ffffe5a9
00003879
fffffbac
000009df
00003269
ffffec13
00000f2e
000027f7
ffffe93c
00000ff1
00002905
000033bc
00000f9d
ffffd2e8
0000355e
00002756
fffff2f9
00000137
00003966
0000219c
ffffef0a
000020a4
00001927
00003527
000000c3
00001422
00003600
00003af0
00002572
00001188
00001506
ffffe407
000027cc
000018bc
00002d1c
ffffc69b
00001ec0
00001d25
000007e6
00002cdf
00000d14
ffffe31d
0000198b
000009fc
ffffc224
00001005
000017d3
0000205f
00002ad0
00002c6b
00003269
ffffd11a
00001813
0000236f
ffffcc80
fffff827
fffff81f
ffffdb73
ffffcf2f
0000397c
ffffca1c
fffffac9
00003e77
000033f4
000026fa
fffff48d
00002dc7
00003e26
00003542
ffffdfdb
00003e4c
fffffb9f
fffff3eb
ffffce25
00000c8d
ffffce13
ffffd105
ffffd18b
00000249
fffff169
fffff99c
00000fe5
ffffd540
00001dfd
00001f96
ffffd13d
0000343e
ffffd91f
00001a8a
0000202a
000015db
ffffdc27
00000035
fffffa92
ffffce44
ffffe689
0000265e
ffffe5dd
ffffdaeb
ffffe066
ffffd824
00000f84
ffffcedf
fffffdf1
00000d2c
ffffc69b
00001066
00002c39
00002ee9
00000306
000019d5
ffffed56
00000f25
fffff3a4
ffffe4d8
ffffdf87
0000080f
00002dda
ffffef7c
fffff26e
fffff8a0
ffffce61
00002a1a
ffffdb32
fffff176
fffff629
ffffdb4a
ffffd9e5
fffffa2c
ffffc89c
ffffe5dd
ffffd90c
000011cd
000037c5
fffff9ef
000033e7
00000619
000031b8
00000cd4
ffffbb4d
fffff7d0
ffffb4e7
000001e1
00001d81
ffffeedd
00001e63
000023c2
00002643
fffffea4
ffffda96
fffff203
000028f4
ffffca08
ffffdace
00002df3
ffffbf5a
ffffe547
ffffe365
ffffde79
ffffd4ff
ffffcf9c
ffffd1fb
ffffdadb
00004fcd
00000af3
000056cd
00003476
fffff897
ffffc29a
000020fe
00000d65
00000cc1
ffffb3c0
000034ea
0000451b
ffffe2a6
ffffc281
00001a89
00001c65
ffffce2e
00003aa0
ffffcd44
00002031
ffffff30
00000fc5
ffffd81c
ffffefbc
ffffc3aa
000010ef
00001a7b
00002a1c
00001cf9
00001dca
0000140a
fffff220
ffffc7e2
000022d8
ffffb330
ffffe9f3
00000fe6
00001b52
ffffc76c
ffffcb20
00001c58
ffffdd80
fffff48e
00003a6a
ffffcbf3
ffffd5da
00003844
000004fd
ffffc5c5
000020ab
0000285a
ffffcce3
00000ab7
00001111
00002779
00002031
000033e6
000000a3
fffff9bc
00002d41
fffff293
ffffb2c2
ffffddfe
ffffdb70
ffffe444
00002c88
0000175c
000022a5
00001a1a
000025ad
0000096a
00003870
ffffe456
00001edc
00000fad
ffffd72c
ffffe5b8
ffffd909
ffffd8a8
00001df9
ffffe2d2
000011d5
ffffe1de
ffffe23a
00001f16
00003387
ffffc687
ffffd491
ffffc4cc
fffffe55
00001700
00000e07
000023b8
0000278a
fffffed4
000044b4
00000250
00003bd8
ffffeb54
ffffd451
00000a99
fffff396
00000c09
ffffccef
ffffde5c
fffffb67
000026cb
fffffa01
000022eb
fffffa3b
000005fd
0000015e
fffffb2d
000029a1
ffffd533
ffffef42
fffff4b9
fffff2cb
ffffd6da
ffffe62c
000020b9
00000e89
ffffd745
fffffe0d
ffffd4cb
00000221
ffffd536
ffffdffd
ffffdb16
fffff8bb
ffffc55d
fffff816
000010df
000029b3
ffffd704
00002c0e
ffffd959
000035f5
ffffd726
000044dc
000027fa
00000cf0
ffffe2ad
ffffe737
00000667
fffff450
00003e88
ffffff0b
fffffd4a
00002fae
00000733
ffffff5c
000019c1
ffffda2f
fffff8d6
ffffde8c
ffffedfb
ffffe919
ffffd224
0000309d
00001ab9
ffffe09e
00001580
000016f4
fffff25c
000034f2
00002475
000041f7
ffffdc9d
00000c4c
fffff21e
fffffcd4
000029f2
00003b16
ffffe10c
00004a6a
00001ecd
000026d2
fffffb4e
00001051
00002696
00001551
00001966
ffffc453
00000219
ffffc496
000004c7
ffffcf5f
00000b49
fffffe40
00005248
ffffe75c
00003b95
0000522b
00000ad0
fffff41b
fffff291
fffff62f
fffff878
00001a7d
00001bc7
00000d9e
0000340f
00001a68
00000952
000022f0
ffffe501
00000f2b
00001499
ffffc332
ffffd7b5
ffffea1d
ffffd8b0
ffffd5fd
ffffeea8
ffffd284
00002cf9
fffff734
ffffd826
fffffc62
00003777
0000440b
000009a9
00000360
00003e43
00003730
00003e4b
00003189
0000321a
ffffea4a
0000317d
00000968
ffffec93
00003a36
000044cd
ffffd233
fffffa9c
ffffe1c1
ffffebbc
fffffeee
00002931
0000162e
ffffdbdc
000006f6
000010f2
00002826
fffffa2c
00001dae
00003bc7
00002cd7
000029b9
00004f9b
ffffe7a4
0000156f
fffff0d6
00001644
ffffe8a0
00002899
ffffda96
00002b1d
ffffd3d3
ffffcacc
ffffdfd3
ffffe5ed
ffffde27
0000228d
ffffd589
fffffc25
00002cdb
00002a85
00003421
00003f04
ffffe9f0
ffffecf9
fffff755
ffffe674
ffffce80
000018f6
00001a58
00003054
000030fb
ffffee40
00003b05
000045eb
ffffeb2f
00003361
0000334e
00002588
0000011a
00003e3f
ffffe370
00003423
fffff620
ffffd6e8
00001c52
00002fe8
ffffd3bd
ffffe9b1
ffffdaab
ffffd0c0
ffffc994
fffffc3b
0000300e
000009ed
fffff4cf
fffffa62
00001876
00000fb0
00003b3f
ffffd180
ffffe112
00000e6a
fffffa13
ffffcf1e
fffff907
000035e6
ffffcad9
00000632
ffffe868
ffffd418
fffff391
ffffdf76
ffffd329
fffff807
00000160
00001772
00002d17
fffffed0
ffffda3f
00003249
000014ee
ffffedfd
ffffdd30
fffff3a8
ffffb63b
fffffc1b
fffffaa0
000028f2
ffffee50
000009b3
00001606
ffffdac1
000037d4
ffffdb2b
fffff473
00000c54
ffffd22a
ffffbff0
00001873
ffffcd2e
ffffeaf5
0000339d
00002dcb
ffffe72b
ffffde8b
ffffd0f2
fffffc89
ffffce50
fffff563
fffffdd3
fffffa2d
ffffdab6
ffffc260
ffffe38e
fffffa9a
fffff0c8
ffffe072
ffffc12a
ffffd164
fffff193
0000173a
ffffcef0
ffffc76e
ffffc61b
ffffde11
000030f9
ffffc4e0
ffffc74e
fffffc5f
fffffc5e
ffffdbb7
00001828
00000b96
ffffce6a
fffff465
fffff3eb
ffffc917
ffffff4e
00003aca
0000371a
ffffc567
000038fd
ffffc84c
0000377d
0000167b
00002b28
ffffd31a
00000145
00000a26
000026f7
000004eb
fffffcab
fffff078
ffffdc74
00001907
ffffdbe8
00000002
ffffe0d5
00000000
00000000
00000000
00000000
00000000
00000000
00000000
00000000
00000000
00000000
00000000
00000000
00000000
00000000
00000000
00000000
00000000
00000000
00000000
00000000
00000000
00000000
00000000
00000000
00000000
00000000
00000000
00000000
00000000
00000000
00000000
00000000
00000000
00000000
00000000
00000000
00000000
00000000
00000000
00000000
fffff129
00000a7f
ffffff04
00000e9a
ffffced4
ffffedb3
00001158
00001b26
fffffe0d
ffffd053
0000159a
00003513
ffffe940
ffffdad9
00003953
0000018f
0000373b
000028b7
00002a6f
00003df3
0000245f
000005fa
ffffe648
000007f3
ffffc37e
00003855
fffff0b4
fffffc19
ffffc4b9
ffffe16c
00001f3c
fffff785
ffffe4e0
ffffd127
000024b5
fffff2a2
000007e0
ffffd913
00003ed6
fffffcdf
ffffec4a
000004a6
ffffe25a
ffffdc1f
00000ade
000028f8
fffffa1c
00000059
ffffc764
000010e3
ffffdeed
ffffd3c6
ffffea4e
0000004e
00003b17
0000353e
ffffe636
00002b21
00001e15
00002dee
00003894
ffffd4fa
00000fc8
00002afb
fffff69e
ffffd517
fffff6a6
00001b91
00002769
000037a8
ffffe31b
ffffd926
00002ba0
00001175
ffffd94a
00000998
ffffc4a0
00003f52
fffff1fb
000037f9
0000322f
00002f60
00000195
ffffe4ff
ffffc31b
ffffd543
fffff379
00002c48
000031d2
000032c8
ffffe40a
ffffc336
00000bb7
000001c3
00001ea9
ffffcb3a
00003080
ffffdfe7
00003be0
00003a10
000017ed
ffffcb8b
00003d47
000038fc
00003e27
ffffe137
ffffc082
ffffe89a
fffffa4d
ffffd968
000036e4
ffffe5d2
00001b02
fffff79b
00000682
fffffdd1
ffffe08f
00000423
ffffd7d3
00001e39
00003e83
ffffd60d
ffffef3e
000033a2
00001aad
fffff710
00001009
000009af
00003027
0000187d
ffffd78a
fffffb97
000021fc
ffffc5f8
00003c9e
fffff695
ffffd2a8
00002b2b
ffffcf6e
00003385
ffffe12b
fffff863
000035ac
0000284a
fffff0e6
fffff431
000001bf
00001a84
ffffc959
000024bd
ffffeacd
ffffc826
ffffea11
000016b3
ffffd19d
00003b48
fffff2bf
ffffc04f
ffffe2b6
0000126e
ffffd978
fffffd6f
ffffc55c
ffffefe3
fffffbc1
00002bc8
000023bf
ffffdbee
00002742
fffff6a1
fffff8aa
000025dc
00001a93
000026d6
ffffc5e3
00003300
00000886
ffffcb1d
00000bd1
00003813
00000094
00002906
00000853
ffffd81f
ffffd056
ffffe64b
00000ca0
000027ea
0000247a
00002d93
00001a14
ffffdc47
ffffff32
ffffe1dd
00003797
000007c8
00001588
ffffcd8d
ffffc083
fffff2ba
00002e2f
fffff245
ffffe5b4
000000f2
ffffe5d9
00000004
ffffcd84
000018ae
00000e26
ffffcf3a
00001a77
ffffc856
00003553
ffffe71e
ffffd49a
ffffd5db
000015f7
fffffca3
ffffd236
ffffd9fa
ffffef88
fffff283
00000438
00001761
fffff86f
000027cd
ffffd24c
ffffdb51
fffff7cc
000016b0
ffffdf8e
fffff56e
fffffa8d
ffffe33c
ffffcebd
00002aac
ffffbb6f
00002a68
ffffda40
00000822
0000250a
ffffd8df
fffff75f
fffff011
ffffed35
000039bb
0000214d
ffffd4e5
fffff66c
00000970
00001fa3
ffffff48
00001ba1
0000070a
fffff8b6
00000a04
00001e73
00002aec
ffffd626
ffffbf5f
0000254e
ffffe662
ffffe49d
0000324d
ffffd247
ffffe167
000025d1
fffffdca
000002ee
0000253f
00001df5
000028b6
000026be
000019d4
ffffe970
ffffd99e
00004374
ffffec2f
ffffd08d
ffffd2b2
ffffd990
ffffc2c8
0000155e
ffffe78f
000028f3
ffffe948
0000121a
00002aa1
ffffbdbd
ffffce51
fffff162
000015c7
000008d2
0000396e
000002eb
00000a38
00004568
ffffcbb6
0000338d
ffffe7c3
000023b6
00001bf0
fffff6a6
ffffe6e6
00000765
00001d21
000036bf
ffffe6d9
fffff2ce
00002c03
ffffe4c6
00001448
ffffdd44
ffffe6e1
00003624
000011a9
000002c3
ffffc62c
fffff1c4
fffff699
00001688
00000d13
00002f90
000038f5
ffffcbdc
00000ccd
ffffdcb4
fffffd2a
ffffef30
ffffcde8
00000f4c
fffff3c2
ffffe7ac
ffffdf48
ffffe51a
00001709
fffffba1
ffffd614
0000151e
ffffe1b9
0000056f
00003893
ffffd288
ffffc000
0000088c
fffff25a
ffffeecc
ffffe559
ffffda6a
00002e7b
fffff986
fffff6e5
ffffcebb
00000de0
ffffc011
00000a31
ffffb9a2
0000029c
00001b92
ffffbe88
ffffd3df
ffffc9cb
ffffe438
00000562
ffffe692
fffff082
0000285f
000035f9
00001dbd
00001929
ffffe799
fffffe2e
0000021e
000030ce
00001cce
00002c20
000032f6
ffffdd7c
00002641
fffff173
00000a22
ffffda54
ffffdb73
ffffbc33
ffffe795
00002632
ffffe005
ffffcebf
000008f6
000038ee
00003f02
00002f76
fffff314
00000e09
0000011c
00001dc6
ffffd57f
ffffc450
fffff9de
00002f95
ffffd213
0000123d
ffffcfb7
ffffdd81
000044dc
ffffd291
ffffd8a4
0000055d
00000acd
ffffe754
0000125b
000005d5
0000046a
ffffecbe
ffffbd55
fffffbc6
ffffd81d
fffff5d6
ffffdb02
00002a59
ffffd74c
fffffec4
00000464
fffffd3d
ffffcc80
00001366
ffffe97e
fffff4bf
ffffd773
000021b6
00002099
0000104c
00003d2b
fffff58e
ffffd485
ffffcbfd
ffffdf5d
000024ec
ffffe277
fffffdf7
fffff032
ffffd08f
00001178
00002f02
ffffc35e
fffffe19
0000171e
fffffc88
ffffd730
ffffcd7e
0000022c
ffffef45
ffffef91
00000732
ffffe58c
ffffcbd7
ffffb495
00001ca6
ffffd46a
00001659
00001eba
fffff9f8
00000163
000040e1
ffffdc2a
ffffd361
00000e9b
00003193
ffffc7bf
ffffcf1c
ffffd85c
fffffb04
000000cc
ffffdd00
000038cb
00002cab
00003906
00002186
fffff828
00002282
ffffd369
00001aaf
ffffcc25
ffffea30
ffffba92
000002c2
fffff654
ffffe135
ffffe53a
0000411e
00002fca
00001029
ffffd326
000020b4
ffffc351
ffffdca8
fffff9fc
ffffe72d
ffffdfc6
000014c6
fffff3c3
00002fd3
00000d17
ffffc8fd
00001123
000030cb
000025b3
000040d6
0000322a
fffff1ce
00004191
ffffea99
00002c4e
ffffc61f
00000107
fffffaf8
fffffd4f
00000c43
ffffebe4
fffff49c
ffffdcce
ffffda5a
fffffc3c
fffffbf3
00002ebe
fffff099
fffffa36
ffffda43
00002596
ffffcf77
00000a61
00001065
00001f74
ffffc27f
0000260d
00000ca2
ffffdfdf
00002980
00001137
00002ae4
ffffe702
00002e12
000014cd
ffffe1b8
ffffdd79
00003740
000008d8
00001021
000005fb
0000393b
00000656
ffffd5b5
ffffc0e9
ffffd2ab
ffffce63
00001b23
00002136
00003efc
00000378
000037d4
fffffd16
ffffcb88
ffffcd91
ffffc66a
00001f49
ffffdb63
0000448b
0000486e
fffff8e2
00003058
00004b4c
fffffe71
0000332e
00003b25
00003f74
fffff6f9
fffffd6e
ffffe3af
ffffc66b
000026bb
ffffdf1b
00000620
000015b4
00002127
00001483
000011af
ffffc811
ffffd9c4
fffffb89
ffffdd32
00002a04
00000b8a
ffffd1ba
ffffd595
00002294
000009ed
00001ef5
ffffe02b
00000940
00002a7e
ffffe868
000037ad
ffffcfc8
00000c37
00002350
ffffddac
fffffa92
00002173
ffffcb46
00003982
00002fcc
fffff963
ffffd5cb
00003b5c
ffffda81
ffffcca5
00002695
0000355b
ffffef74
ffffc5a2
ffffd21c
000013b7
ffffd899
00000abb
00002b79
ffffd973
ffffecd2
ffffbcea
ffffe6bf
ffffd939
ffffdd83
ffffd7c3
ffffcd44
ffffc6ed
00001a42
000010b0
00003a37
fffff548
00002f29
fffffec4
0000017c
000035f1
00002b33
ffffc7d7
ffffef70
ffffcb23
000024ba
fffffbd5
000015d2
0000163e
fffff022
ffffed46
000033d0
ffffe562
ffffd119
00002219
00000c62
fffff3a1
0000103e
00001b6e
000022a6
fffff6bb
000005e4
ffffc32d
ffffc4a3
00001598
00003009
00003a88
000019f5
fffffb65
ffffec36
000020f3
00001b17
ffffc6df
00001b79
00000bb2
00001495
0000260f
00003d6e
ffffbff1
00001be1
ffffc0bd
0000357a
ffffea69
ffffeb6a
00000749
00002b1a
fffff52c
ffffccc1
000030ab
000033c4
000008bc
ffffcc9f
ffffeff7
000019f0
fffff65a
ffffe2c2
ffffc5ed
ffffc0ec
ffffd29c
ffffc6c5
ffffce1a
000030c4
00001bd5
ffffc40a
ffffcee5
00000079
00001a18
000023b3
ffffec81
ffffdc96
fffff649
000037db
0000035f
000039ce
ffffc217
00002eac
ffffe6f3
00000541
000012b7
000004b9
000005b5
ffffe148
00000861
ffffc2d4
00000d0c
fffff4f0
00000f89
00000c33
ffffc7c5
ffffcf36
ffffec31
00001911
ffffc16f
00002ebd
ffffc715
0000287c
ffffe497
00002bfd
ffffde4b
ffffd3c6
ffffe766
fffffda3
000029ec
00001042
ffffe479
00000635
ffffdc60
ffffc3e5
ffffef1d
00001fa6
00002728
ffffe9a8
ffffded6
ffffe813
00000cd7
00001483
00003c82
0000123f
00001d7e
000036d1
00000914
fffff8af
000020e7
ffffd825
ffffe26c
ffffdfab
00003499
ffffdb02
00003af9
000029ef
ffffde3f
00001db6
0000129e
00000a36
00000c33
000014dc
fffff64e
00003033
ffffc676
000011ef
ffffe290
0000121d
ffffd91d
00000000
00000000
00000000
00000000
00000000
00000000
00000000
00000000
00000000
00000000
00000000
00000000
00000000
00000000
00000000
00000000
00000000
00000000
00000000
00000000
00000000
00000000
00000000
00000000
00000000
00000000
00000000
00000000
00000000
00000000
00000000
00000000
00000000
00000000
00000000
00000000
00000000
00000000
00000000
00000000
000038e8
ffffe1ff
00001c95
ffffe856
00001045
ffffe492
fffff699
fffff650
fffffabd
00000e4b
fffff97c
000001f3
00000353
00002a59
000005d2
fffff58a
000039ce
ffffcb49
00003188
0000028b
00001cc5
00003ae5
000005ab
00002639
000014da
ffffce58
00001a07
00003840
ffffc874
00001e85
000003fa
000013f7
fffffd4a
ffffe22f
ffffdf93
00000771
0000134a
00001122
fffff830
0000059e
fffffcbd
ffffc413
ffffeeea
fffffb58
ffffc739
00002bea
00003c6c
000026d6
fffffcde
00002992
00001661
00000e8b
00000c7d
ffffd358
00001894
00000613
000017f4
00003815
00003e51
00003ba8
ffffdfb0
00001c91
000003e9
ffffedb1
000007d9
00002e2c
ffffd652
ffffe658
00002969
ffffdcd1
00000fd1
ffffcb32
000008aa
ffffd121
000021bc
fffffbb3
000006b1
000023ed
00000c8e
00001b02
ffffc60c
00003963
00001ad9
ffffe2af
000006e3
00000f46
00003425
00000b77
fffff182
ffffefc6
000010e0
0000322a
fffff96e
ffffe094
ffffdc6a
ffffdafb
ffffd93c
0000454e
fffff04f
00001c82
ffffdd02
000028c0
fffff960
00003c1b
00003b69
ffffd132
ffffffd9
ffffd066
00000036
00000200
ffffc6f7
000003a3
ffffc791
000000ee
00003e8e
00000e79
ffffe62f
000022a8
ffffcf8d
fffffedc
ffffdb4c
ffffd043
ffffffa0
00004b08
fffff6de
ffffded7
00003148
00002fdd
ffffed23
00001163
00003272
0000310f
ffffdcad
fffffe57
ffffe229
fffff1de
000017f5
00000c41
ffffe1bd
fffff21a
fffff283
000015ae
000016e3
000020ca
00002e42
000030da
fffff592
00001b08
000036a2
00001c48
00005598
ffffe320
ffffeb7c
00002de8
0000096e
0000369c
ffffd73f
fffffbe5
00001f03
ffffea8a
000019d3
ffffd995
00001218
0000380e
00000178
ffffe2a1
000003f2
ffffeec8
00002beb
00000b88
ffffcca6
ffffed12
ffffd043
ffffdd61
fffff76f
fffff3d3
00003852
fffffd8b
00003088
00004b31
fffff227
00002a75
000034ce
fffff69e
00002e0c
ffffdec9
00001840
0000366b
0000405d
ffffeef5
000011e5
00002eb6
ffffe011
000018f1
ffffc369
000038cd
00003237
000030eb
00000ac6
00003ca2
000032be
000028a7
fffff591
00000f50
00000aa6
00003f0d
ffffd93b
00000062
00000bc8
000018aa
ffffeba1
00000620
fffff0ea
00000752
00000478
000002cb
ffffcf61
ffffcaa2
ffffdc9b
00001a4f
ffffcb18
ffffcddd
ffffd6e5
000011f7
ffffeeb9
0000223c
fffff0ad
fffffb2b
ffffc9d8
000005eb
000022c3
00003d07
ffffd072
ffffde0a
0000104f
fffffb1d
ffffee20
00001115
00003561
fffffa06
00001bd5
ffffdf7e
00001b6e
00002280
fffff872
00001676
00002757
ffffd920
00002248
00001694
ffffd779
000037f8
ffffd43d
000037de
00002f1b
fffff53f
000009a3
ffffec09
00001939
00001143
00002003
ffffc4ea
ffffd256
ffffe284
ffffd611
ffffe63a
00001dc2
ffffe862
fffff522
00002791
ffffd605
ffffde0e
ffffd7ca
ffffe358
0000091e
00002e16
000029b8
00001187
fffff774
00001604
000038ee
ffffd5f9
000013a7
000013f0
00002125
ffffdeed
ffffe305
ffffc1ff
ffffbd7d
ffffe607
ffffd08a
ffffbd63
ffffeebe
ffffbe66
00003a51
0000125b
fffffb79
00002533
00002e14
00000174
ffffe50d
ffffdf49
ffffc88f
ffffd5d6
00003267
ffffc658
ffffd0f6
ffffd817
ffffe430
ffffeb6e
fffffdb6
ffffd37a
00002340
0000291f
000003ff
00001e16
00000e1c
ffffb81c
000028ce
ffffe03f
0000114b
ffffe52b
0000060c
00004841
ffffdf91
000001f4
fffff671
0000228f
ffffdbd2
ffffc393
000004e1
00002273
00003488
ffffe4c3
ffffea70
000018b3
ffffc6e5
0000309c
ffffff63
00002012
ffffd1e7
ffffec3c
ffffd6cd
00002431
ffffc2ce
ffffc752
ffffc846
000014e0
ffffe435
00002d59
ffffd249
ffffd93a
00003bf3
ffffdc6a
ffffd69a
ffffd89f
00000914
ffffd1c7
ffffcb53
ffffd37a
00000be0
ffffefa0
ffffdfc4
00001295
00003f33
ffffe22c
00001959
ffffe0a0
00002ac0
ffffcd90
ffffef0c
ffffc8fe
fffff3d9
000003e2
00002fdc
ffffd012
fffff43c
ffffe5dc
000046a7
ffffe24c
fffffe30
000011e8
00003fc7
000034c5
ffffe41a
fffffb87
fffff223
ffffed81
ffffc8c3
ffffe3eb
00000d6c
ffffe5b4
0000238d
00003a4d
00002d1c
ffffc097
00000312
ffffe596
0000036f
ffffd67a
000036ea
000031fc
0000064b
00003abc
00000899
ffffd3ac
000015dc
ffffe9ff
0000066c
00003959
ffffd84c
fffff96f
ffffe986
0000116b
00002e4e
00000c80
ffffc79b
00003e23
ffffde4e
ffffc6ca
ffffce8d
00000b4a
000001c0
00003de8
ffffca35
ffffeb1e
ffffc0a0
0000170e
ffffd3b8
000021b5
00000f94
00002b26
0000262c
000035ee
ffffe4e8
00001850
ffffd0af
00003a7c
00003eeb
ffffde1d
ffffdf5c
ffffeb8d
fffff9b2
ffffca08
0000083c
00000a8f
ffffcfa7
000034c1
00003494
ffffca59
000018b7
00000389
ffffc2de
ffffed10
0000142e
fffffab7
0000101e
000019a0
ffffc1fb
ffffb3dc
00001f6d
ffffbb63
ffffddec
0000052a
0000258c
00000357
000014bf
0000096e
ffffddba
000001c4
000044e2
ffffdb43
ffffc909
00003390
ffffe4d4
ffffc8e3
000028db
00002e56
00000cf0
00001337
ffffe4bd
00002450
00002fa2
00002027
fffffc15
000017ba
ffffd882
ffffbe79
ffffd625
ffffbee7
000014c1
ffffe52a
ffffe8dc
000008ec
000014fd
00002a8f
0000485d
ffffedf5
ffffe7b0
ffffd956
ffffcbf8
00001db9
00000d9b
fffffd16
ffffe12b
ffffecf6
ffffe4fd
00003dac
00003de4
00000622
00003424
0000321a
ffffbef0
fffff21c
ffffdb24
ffffc4ce
0000297b
ffffdaf3
ffffda14
ffffceff
00002ff5
0000177f
0000098e
ffffcf5e
00000d1c
00001138
00000ec6
00004154
000001c5
00003e5b
ffffcff7
00001222
ffffdae5
ffffc7b4
0000116c
00002920
ffffffc2
00002e55
ffffd749
ffffee7a
00003010
ffffd6d0
00001a47
fffff282
fffff99b
fffffae2
fffff18c
fffff979
000003d4
000027c4
fffff1ea
00004701
0000339c
000031df
00000fc0
00003191
00000088
000038bb
00001826
fffffad7
fffff770
000000ce
00003d71
0000400c
ffffcf7a
0000186e
fffff005
ffffda27
fffff2ec
000022a5
fffff26a
ffffd0dd
ffffec29
00003ae1
ffffe282
ffffea2c
00001814
000021eb
00003c7c
00000a3a
00002159
fffff5ef
ffffe55b
00000a30
ffffc667
000032d7
fffffa60
ffffe2b5
00003f6a
00001ca3
ffffeb95
00003de4
000011af
00001500
00000df0
0000577e
0000209a
ffffce89
00003e0e
ffffd13d
ffffce4d
00003c3c
0000332c
fffff6e1
00004551
00000867
ffffdf69
00003860
000011bf
fffff023
fffff08b
ffffebaf
00001a9b
ffffef36
fffff5e8
00000d5b
ffffc652
ffffe13e
ffffc33f
ffffd2b7
00004710
ffffde25
00004fcc
00001b6b
ffffef42
ffffe68b
000019d2
000038a9
00001c17
fffffa4a
ffffce32
00002332
fffffc7e
0000196c
00002c2e
00003df0
00001060
00002250
0000057e
00000b95
ffffe390
ffffc0d5
fffff320
ffffcf01
fffff65a
ffffdf2d
ffffe58f
fffff619
00003c1b
ffffe0fe
00000e82
00000bac
ffffdc50
0000023b
000002a0
000016a2
ffffcfc8
000028c8
ffffbdb6
00000053
00000213
ffffbbe3
ffffcd82
ffffd308
ffffdd98
ffffd1fa
000037d8
ffffe68f
ffffd4eb
ffffc576
ffffd4c7
00000aa2
00001eb6
00002484
00003154
00003189
fffffa1e
00001747
fffff44a
ffffdb03
ffffdd89
00004966
ffffe896
000029af
00000383
000026bc
fffff685
ffffcbc0
fffff0f3
000022a9
ffffeaf4
ffffe8bb
ffffe4da
000008ac
0000343e
000011d3
00001cc2
00000819
00003c99
fffff75d
000005c6
fffff438
ffffe7d9
ffffd533
ffffdbce
00001dcb
ffffc254
ffffe157
00002a81
0000148c
ffffd12e
00000e5f
ffffc996
0000320d
fffffda2
ffffe3a6
ffffcd52
000027f4
000013e6
00002216
000033c0
fffffa9f
0000131e
00000a1c
00003a67
ffffe92d
ffffcc66
00001392
fffffdfd
ffffcf0d
00001dcd
00000dc4
00003c15
fffff3b9
00001ac3
ffffc58f
fffff1ed
00000c37
ffffd503
ffffe46d
0000305c
00001d99
00000413
00002edb
000025b0
ffffd1b0
00001d4d
000025cb
ffffdee0
00001eba
00002627
00001ab0
ffffc20e
ffffef91
00003f52
0000347b
ffffeb8f
ffffcd36
ffffd281
00001a6c
ffffeb54
00000bf0
00000006
ffffeac9
ffffc25c
ffffe552
ffffc372
00003a46
ffffcf3d
000013aa
000011db
ffffdd86
00002244
00000889
ffffdf76
00003e1f
ffffcd0a
000019c4
0000353e
000014a3
00001300
ffffc755
000012e4
ffffd16d
00000000
00000000
00000000
00000000
00000000
00000000
00000000
00000000
00000000
00000000
00000000
00000000
00000000
00000000
00000000
00000000
00000000
00000000
00000000
00000000
00000000
00000000
00000000
00000000
00000000
00000000
00000000
00000000
00000000
00000000
00000000
00000000
00000000
00000000
00000000
00000000
00000000
00000000
00000000
00000000
ffffe790
ffffdeca
fffff638
00000c8f
00000be1
ffffea05
ffffc93d
00001680
ffffe144
ffffd4ca
000017cc
00001b74
ffffced9
ffffde1e
00003541
ffffec17
00003639
00003c20
00001c25
00002260
ffffdbc4
ffffd909
0000362d
00001c5f
00003908
00001fa9
000038e8
ffffd7f8
ffffe95c
000022ca
0000335b
00002c9d
ffffcb3a
fffff843
fffff47f
000029e3
00003dc7
0000257a
ffffc3a3
ffffd65a
ffffc997
00000c40
ffffcfda
00000857
000026e0
000029e9
00002b80
00003d5a
ffffe2eb
00002c0f
fffffd0a
fffff5b8
ffffe0e7
ffffd28d
fffff6da
ffffd592
00003b2e
000012fe
00001f66
ffffe458
000037ae
00002e8c
ffffe1fd
ffffc896
0000362a
fffffe2b
ffffe042
fffff3f3
00003658
fffffad1
ffffe42f
ffffe770
fffffafa
00002232
000025c5
00000522
ffffe48c
00002f24
00003f24
ffffc4c5
000033c6
ffffe582
00003aac
000024f2
ffffe92b
ffffcc2c
ffffd065
00001f6b
ffffd9d4
ffffd274
000029db
ffffd2db
00000a8f
ffffdb4f
ffffcf78
000031b0
00003c1d
00000fca
ffffd853
ffffdf79
ffffcc2e
00000e7a
ffffed54
ffffe35d
ffffd450
00000306
ffffe7a9
fffff13b
ffffc9cd
ffffe095
000019f3
00003d62
ffffcec7
fffff03e
000026d9
00002e1a
00001429
000031c1
ffffcea7
00000ee1
0000176e
ffffd48c
ffffee37
00002f4a
0000137e
000019ed
000002a4
00001846
000013f2
00001508
ffffed4b
0000372b
000025f3
000008ed
00000da5
ffffc41b
000027fb
000016c8
0000075a
fffffaa0
ffffc053
ffffdf1e
ffffe95c
ffffe730
00002e99
000003fc
ffffc888
ffffd7c5
00000abc
fffff02f
00003043
ffffee2d
ffffee57
00003146
00000607
ffffe6ae
fffffedd
fffffaee
ffffba41
00000c2f
ffffeb63
fffff0a9
00000fd7
00000d1d
ffffcd77
ffffe167
00002ef9
00003f37
fffffca3
00003787
0000170d
00000091
ffffdff4
000020b5
ffffcbe7
ffffd54a
00001e30
ffffe098
ffffc373
00003a5a
fffff0e2
00002b2e
00002d72
fffff4f2
fffff8b1
ffffefc9
fffffd1b
ffffe67d
fffffb3b
00001eff
ffffea31
ffffd870
ffffc13f
fffffc69
ffffdc14
00002f04
00003d6a
000015aa
00001f6c
ffffeede
00003892
ffffdc19
000002ef
000038f4
ffffe740
ffffe6b4
00000b8a
00003fe3
ffffe5ca
00002ae8
00001332
00002f73
ffffe0e3
00003074
00003aba
ffffcd3f
fffffe70
ffffef76
00000902
fffff085
fffffaa9
000034c8
000013f4
ffffc315
ffffd8de
000024d6
00000d63
000020f1
0000305a
000025d1
000005f2
00002f2a
000027e6
ffffd9e0
0000154b
000020f0
00000548
00005da6
000040b5
00001de3
00005387
00001a25
00003b40
fffff0ca
00000b20
00000010
ffffe311
00000c7e
ffffdc1c
ffffbb92
ffffe4e9
00001f72
ffffe6d0
ffffeb02
ffffea5d
0000078a
ffffd1f8
00003c86
0000400f
00002c7f
ffffe0ad
00000870
00000f97
00002283
fffff0a3
0000297e
00003ac8
00004444
0000061e
0000145d
0000068b
0000294a
ffffea57
00002cde
ffffd6d7
ffffecfd
ffffc9b2
00000a6c
00002f13
000016e1
0000090c
00003b5f
fffff8b3
00000d80
ffffd7d1
ffffe5d6
00001c59
00000bf9
ffffe0f1
ffffdd19
fffff682
ffffce72
ffffeb63
00002596
00000006
00005417
0000602c
00005616
fffff061
ffffea60
00002071
ffffe055
000033f5
fffffa17
000000eb
ffffd225
ffffc430
0000332a
ffffef9c
0000013e
ffffcb1c
00000a3f
ffffd9ef
ffffe958
fffffabe
000020eb
fffff031
00001c1e
fffffab2
fffffc0b
ffffd758
0000094f
00005c9e
0000662f
ffffeae2
00001e5d
00004993
000031f3
ffffcd07
000037e6
ffffdb96
ffffc271
ffffcca7
fffffff1
000035fc
00002ffc
00000b09
00002ec2
00003c1e
fffff975
fffff711
ffffd089
fffff1ff
ffffcc6b
ffffc6df
00000303
00000089
ffffdc1c
ffffbc68
ffffc81c
000017c9
fffff985
00002862
fffffc5a
0000137f
00002cc7
00004269
000009e7
0000036f
00001db1
00000ffc
00001e38
000011ef
ffffe724
ffffd16e
ffffffc2
ffffc9c4
00000421
00003bcf
ffffd91e
ffffeb33
00002bd6
ffffc956
fffff749
ffffa02a
ffffc6ba
ffffc977
000014de
000020a0
000037aa
00000712
00000ede
0000216a
00001cfe
ffffec1e
00003296
ffffbf03
00002901
000009f7
ffffd264
ffffe2c5
00001991
000009bb
00001cfe
fffff923
ffffdc66
0000177c
ffffd729
ffffc30d
00000296
ffffe140
ffffda8f
fffffdc5
ffff893d
00000531
ffffded6
000029e6
00000dcf
00002c8f
ffffee93
ffffe9e2
00003c7a
0000019f
00002ef1
00001c95
fffffa44
00001a82
00002b3f
ffffcfa0
ffffddff
00000925
00001f45
000025eb
ffffd125
00002f12
ffffce96
00001c8e
ffffe346
00000377
ffffd083
ffffda55
fffff145
ffffb8d8
00002300
000015d0
fffff54f
ffffdf79
00002b91
00001d70
ffffe445
ffffe73a
ffffed38
ffffe8cf
00000c90
ffffeee4
00000a5c
00002790
00000ce3
00002fd6
ffffcd98
00002c0a
ffffd260
00001602
ffffec71
ffffe473
fffff00a
00000685
ffffd631
ffffd26a
ffffe63c
fffffc77
000048fd
ffffe3fa
fffff036
00000786
00000770
00000769
00001e8c
00003350
ffffe18c
ffffeacd
fffffe98
ffffe600
000034e5
fffff77b
00000f35
00003a6a
fffff8c8
ffffd4b6
00000d0a
00000fe8
ffffc2e9
ffffd5c6
ffffd398
ffffc38b
ffffee7e
00002b0b
fffff4d3
ffffd237
0000487a
00002cd8
fffff7d8
00002a5f
000035e0
000017a2
ffffe1ad
00000ddc
00004222
000004ca
00001425
ffffc3d4
ffffc84d
0000134e
00002e46
00000639
ffffe912
00001e50
00000cf3
ffffff6d
fffff38c
fffff239
ffffd060
ffffcab5
000021c2
00001dfe
00001e23
00001600
ffffe1d0
00003262
ffffff6f
ffffd294
00001568
fffff0a4
000000a6
00002032
00000370
000015e9
fffffcce
00000e48
000001dc
fffff385
fffff77b
ffffea11
ffffc398
fffffe15
ffffeb07
00000ef3
000038d6
fffffed3
ffffcb4a
ffffc4b1
00001bf1
ffffbed5
fffff565
fffffecb
ffffec0b
ffffe896
fffff437
000022d0
ffffce22
ffffee8e
ffffdc56
00003c35
fffff3c9
0000128f
0000033d
ffffc8c5
00002e19
00001c92
00001218
ffffd860
ffffccb2
0000279b
0000086e
fffff2f2
ffffe84d
fffff00f
ffffd565
00000a18
ffffe6ca
000002ec
fffff376
ffffee86
00000049
00001d4e
ffffd66a
00000b0e
ffffd7b4
000003ac
fffff85e
ffffc39e
ffffe99c
ffffe989
00002709
00000c94
ffffc154
00002572
00000a96
000002e4
fffff1f3
fffff4fb
00001bd6
ffffe6bc
00003836
000042ef
fffff92b
00000b66
00001d4b
000009d7
00001b43
ffffeef4
fffff53a
fffff12c
000044a8
ffffe224
00001ec6
0000054b
00000643
00001f68
ffffe9da
00003587
ffffc3ce
00002a49
ffffdc1f
ffffc189
ffffdd80
ffffc358
00000e61
0000074f
fffff150
ffffd241
00001664
0000078d
ffffdfb9
00000021
fffffa11
ffffec5b
0000230c
fffff1a7
000003b9
000021a8
ffffe953
ffffd210
00002338
ffffce13
ffffcc9b
fffffc72
ffffe4d1
ffffd497
00000094
ffffddb5
00003fde
00002063
00001f8f
ffffc958
fffff961
000014a8
00002308
ffffedef
0000404e
00002cdc
00001010
00000be1
00002713
ffffe6c1
0000187e
ffffe712
ffffe0c5
ffffe9e0
00000147
000007ab
000002a2
00001a45
ffffeeb0
0000067f
ffffc95e
00002373
ffffc8bf
00002b78
00000371
000016d5
fffff245
ffffe173
00000c02
ffffc33d
00000e6c
0000320e
ffffe7c9
ffffe333
00004304
000008cc
000022d3
ffffee2b
000030fb
00002252
ffffe120
0000372c
ffffd71f
00001aad
00003480
fffffd12
ffffe02f
fffff920
fffffbef
ffffe625
ffffc983
00000828
000005df
000013c1
ffffcd9b
ffffdd50
ffffdf42
0000139c
ffffda9e
00001f4e
fffffae4
00003e39
00000965
000015bc
ffffe818
0000376f
fffff1f9
ffffe7ec
0000233b
000039ca
ffffe772
00000fed
0000309a
00002677
ffffcb53
00003c0d
fffff44f
ffffd88c
00001a02
ffffd1cb
ffffee15
00000489
ffffccac
00003c80
00000e55
ffffd51e
ffffebf6
00003002
000008aa
ffffdf0f
ffffd115
ffffcd02
ffffe01d
00001997
ffffefd9
000029bb
00001728
00001111
ffffddb8
fffffa7b
ffffdee5
00001914
00002b1d
ffffdd2f
ffffdac7
000034f3
00003e9f
ffffc5e1
00000d47
00001ef6
0000017d
00002885
ffffc2ea
ffffd120
ffffec99
000001de
ffffc7a7
00001831
00002785
ffffddbc
ffffcf41
0000281c
00003d30
ffffe77b
00002f22
ffffd48e
ffffc3e5
000030a4
000016c9
ffffcf38
ffffc700
ffffe03b
ffffc861
ffffdfde
00002da0
00003bc3
ffffe40c
00003896
ffffc2e9
00000000
00000000
00000000
00000000
00000000
00000000
00000000
00000000
00000000
00000000
00000000
00000000
00000000
00000000
00000000
00000000
00000000
00000000
00000000
00000000
00000000
00000000
00000000
00000000
00000000
00000000
00000000
00000000
00000000
00000000
00000000
00000000
00000000
00000000
00000000
00000000
00000000
00000000
00000000
00000000
fffff464
00003fc9
00002403
ffffe1f2
fffffd63
ffffd753
0000074e
00003a30
000035c5
ffffd99b
ffffc5a3
000017ca
000022e3
00001f2c
ffffe447
ffffddda
ffffff5f
000020d0
ffffce22
0000008e
ffffdc49
000008b6
000030f4
ffffd3a5
00003b24
00002732
000014ec
fffffee7
fffffa04
fffffb31
00002ebd
000014be
000010c0
ffffe4db
ffffee8e
00003f1a
ffffc20e
00002ee4
fffff001
ffffe446
ffffed9a
fffffe36
fffff5fc
00002867
fffff29e
ffffdaf7
0000112e
fffff3a2
00000247
0000359c
ffffcc77
ffffdef2
ffffc699
ffffdc61
0000267b
0000296c
ffffc2e9
00002a43
fffff32c
00001913
000035cd
00002712
fffff21e
ffffe4d9
ffffc0d2
ffffd594
000015f5
00000a5c
ffffc53a
ffffd7bd
ffffeb53
0000122f
00000512
000021e8
ffffc6b8
00001f2a
ffffd75f
fffff0cc
ffffcf38
ffffda71
fffff481
00000602
ffffcf9d
000039ba
ffffe603
00000e05
00001c81
00000169
ffffc909
0000213c
ffffd539
ffffc269
fffffefa
ffffe500
ffffe143
ffffd5c2
fffff1fe
fffff226
ffffc15f
fffff7f5
00003145
0000290d
ffffd92b
fffff3b2
fffffe0a
ffffd777
ffffc0c9
fffff9d9
0000310f
ffffcaf3
00003154
000034ec
ffffd497
ffffc1e4
000011ab
ffffe6bf
0000286b
000018c9
00000885
ffffdbd7
000036ce
fffffdf8
00001936
ffffd6c1
00002690
ffffee4d
fffff80f
00000cb7
ffffce52
ffffd725
00001ccd
0000353d
00003cab
ffffdcfd
00001589
ffffce04
ffffdd01
ffffe796
00002207
00000611
000039fc
ffffc1c3
00000be6
000037d9
00000a4a
00003975
ffffffdf
000019bb
ffffdac1
ffffd470
ffffea95
ffffdcf8
fffff46c
00000bfb
00001d18
ffffe814
ffffdd0a
00000e3d
000009a4
ffffd108
000001a8
0000122c
00001f55
0000198d
000008be
000033fa
00003c2f
00002cf2
00000986
00000412
000015a1
ffffd070
ffffe272
ffffdcbb
fffff009
00001926
fffffb13
000006f2
00000d12
ffffdd52
00003120
0000317b
000034d7
000018de
ffffd8a1
00000277
000031a7
00002e65
000019f8
00002055
00001936
0000376f
00004cbe
00000596
ffffce70
00003472
ffffd4d1
ffffc41b
ffffef60
00000bd0
ffffe224
fffff261
00001cbe
ffffe48d
fffffc70
ffffd77a
00000701
00003d2e
00000e20
fffff1d4
00005311
000042de
00002022
0000336f
000040c4
ffffe045
000002a1
fffffb8d
000011d9
00005956
ffffe840
ffffd831
00000810
fffff22f
ffffe3ac
ffffc60d
00001695
ffffd2cd
ffffc25a
ffffc9bf
000009d7
00000115
fffff858
00003847
00001f18
00003f72
00001a97
0000242c
000042ee
00005059
0000166e
0000485b
fffff4b3
fffff81d
00001014
fffff61e
ffffe32c
ffffde35
00002c7b
ffffe1d5
00001568
00000dda
ffffe7a7
ffffe055
ffffe39c
fffffcf1
00002810
ffffeb7d
ffffff34
000025ab
000022d0
000044d9
ffffe1a8
0000439e
fffff179
fffffc3c
ffffd50d
0000324c
00000cbb
0000102b
00002bd1
00002c2c
00000e39
00003b77
fffff50c
00003c06
000011c5
ffffcb4d
00002e5f
fffffd95
ffffeb2d
ffffdaf1
00001c87
00001ff7
00002b87
ffffee30
fffff895
00000a64
00001c58
000016d1
0000189a
000030e5
00005cec
ffffef86
00002c9b
ffffed58
fffffde5
00003893
ffffcaa3
fffffecb
0000228b
00000746
00001309
ffffe6e4
ffffef84
ffffc7a3
ffffcb94
00002412
ffffc8a2
00000856
00002d5e
ffffefb5
000018cc
ffffd946
fffff0e5
fffffb1b
000043cf
000014f1
fffff4bd
00005dd4
0000293e
00003a46
ffffbc8b
fffff2ea
000006b7
ffffe491
fffffecd
fffffb2e
ffffea24
ffffc31a
00000114
00001c92
000035d2
ffffe79a
00001303
ffffd152
00002c93
ffffd5d0
ffffdf9d
ffffead0
00002fff
fffff2a7
ffffe1ea
00002e36
ffffddd5
00004e48
0000415b
00004ade
00000ead
0000159b
ffffeaa2
fffff99e
ffffe4e7
ffffef94
fffff870
fffff1d3
00001603
0000266c
000034bc
000017ca
000036c5
fffffdbe
fffff293
00003765
ffffd956
0000327f
fffff4a7
000011e0
00000d84
000033fa
00001e80
00000f81
000052ef
000042df
00003dd7
ffffe490
00000882
00002c2e
ffffdccd
00001d9d
ffffdd47
00002acd
ffffd9f3
00000e43
000024bd
fffff73a
00003cd9
ffffeae8
fffff40d
00002f0d
ffffe20f
00002694
00003d1a
00000928
000000cc
00000829
ffffefb8
ffffe32a
ffffdfb2
0000064e
00000303
00003db2
ffffdb21
00003c23
ffffd298
ffffca0a
ffffc54f
00000c70
0000078d
fffffbb1
ffffed78
000033bb
00001d7d
ffffeb82
ffffc70f
00002765
00000d72
ffffecdb
ffffd3bb
ffffcc2f
00003b4e
fffff914
ffffc2bb
00000273
00003a19
00002d21
0000289f
00002326
fffff24f
00000982
00002515
00002722
ffffd88f
ffffcdb5
fffff892
00000a69
00001609
00003df1
ffffec76
00002827
000007b5
00002107
fffff7f5
000000e1
ffffc619
ffffcbe4
00001db1
00003eef
000008eb
000037e1
ffffe446
ffffe682
ffffe42d
ffffdb0c
ffffff4d
00001b8b
000028bf
fffffe08
ffffeca8
0000219f
00001e1b
ffffacda
ffffb824
ffffbaf7
ffffd1f6
00003094
0000037c
ffffdd0a
0000008d
00001f48
0000140d
fffffc11
0000395d
ffffc4fb
fffffe21
ffffdf03
00000d1f
ffffdd79
00001638
ffffd4e1
ffffed63
ffffd152
000018be
ffffd51d
000011c8
00002b57
ffffc542
fffff6db
ffffcae7
ffffee3f
000013cd
ffffd70e
fffff23b
00004181
00000067
00001659
00002712
00003142
ffffd70e
fffff862
0000224c
00003c80
ffffc140
ffffeffa
ffffcf89
00001e3c
ffffcd1a
fffff5ca
00002142
fffff2e8
fffffc2b
ffffce01
ffffc03f
ffffd02c
ffffe7de
ffffdf40
fffffe67
ffffb009
ffffc5b5
ffffe9ce
0000354b
ffffdc7e
000006d0
ffffcffa
ffffdda5
fffff562
ffffd24c
000024fa
00002f9e
00001ba5
000034fa
ffffda63
00000163
00002add
00003792
00001f4f
00002c69
000001f0
ffffcaaa
00003278
00002413
fffff895
ffffc9ad
ffffcda7
fffffd6e
fffff9da
ffffcfc5
ffffd31b
00001e99
00000eee
00000079
00001a21
000002bf
00000a0e
ffffc11e
ffffc336
00002f8e
ffffc8db
ffffe968
ffffc602
ffffee8e
00003d75
ffffe6c2
fffff34c
ffffce69
fffffd3b
000027c9
ffffda5b
fffff0f0
ffffe41e
00002e7e
000018e7
00001917
ffffdedf
ffffef70
fffffdba
000016a4
ffffded3
00000adf
00000f2a
ffffdc49
000029d5
00001666
000030ed
ffffee88
fffffd16
ffffef83
ffffef29
fffff312
000030e7
ffffe491
ffffde21
00002d43
00002a30
ffffdd9a
000021e3
00004ea1
ffffe9d6
0000064f
00003a7e
ffffcd2a
00003bf0
0000486c
ffffe938
ffffe079
00001cba
00000497
00003103
00000d6a
fffff5e4
ffffca9e
000024a3
ffffbfc9
00002324
fffff6da
ffffda68
00002e42
fffff521
00003e0f
00000ae8
ffffd179
000006bb
00001583
ffffe939
ffffe7bb
ffffda3a
000042dc
000043b5
ffffee25
000005b7
00004591
0000012c
fffff348
00002973
fffff708
00002049
00001927
ffffc8e1
ffffee42
00000665
ffffcbc3
000026bf
ffffc7ef
fffffb70
ffffd41b
ffffe957
0000197f
ffffc6e3
ffffc86d
00001a78
fffff35f
00002ad3
00001039
fffff677
000046fd
ffffec72
00002fe2
0000005c
ffffe295
00001a5d
00002163
ffffc13a
ffffeed7
fffffe9c
000001a9
fffff46e
ffffd1f2
fffff72b
fffff204
ffffd420
0000212b
00003b2d
fffff701
ffffd5dc
ffffcb65
ffffd6fe
00002aa9
fffff7b5
00003e11
000012fc
00001d9d
00002eba
000047ef
ffffd2cd
00004424
000010ed
000028a7
00002bc1
ffffcef2
000019d8
00001466
fffff0c9
ffffce9d
000021c8
ffffceb5
fffff113
00001515
00002678
000032e5
fffff7c3
00000279
ffffe68e
00000824
ffffea5a
ffffd20b
00003a95
ffffedd7
000017cc
000039b6
ffffddd7
ffffe709
000020b5
ffffff61
ffffd88c
fffff199
000002a3
fffff563
ffffe79c
ffffec15
00002471
ffffd786
ffffe2c8
000015db
fffff6ff
ffffe1fb
ffffc516
000004e8
00002790
000031b0
ffffda7c
ffffe5b5
ffffd062
000018ac
000028a7
0000319e
ffffc65b
ffffd84c
000020b9
00002a20
00002a25
fffffc63
000036fc
000020f7
00003d82
0000127b
00004014
ffffebca
ffffd14d
ffffdae2
ffffd7d2
00000c93
000022e8
00003cf5
00003ed9
00001c3e
000021a6
ffffc3e6
000032b3
fffffe19
ffffe19e
0000195d
fffff85e
00002972
ffffe61e
000011c6
000034b9
00003b88
fffff372
00003592
0000373a
00002381
ffffc9fe
00001e3a
ffffbff8
ffffd64d
000024ea
00000687
ffffd134
00002402
0000346a
ffffee25
ffffc174
ffffd607
ffffc44b
00000000
00000000
00000000
00000000
00000000
00000000
00000000
00000000
00000000
00000000
00000000
00000000
00000000
00000000
00000000
00000000
00000000
00000000
00000000
00000000
00000000
00000000
00000000
00000000
00000000
00000000
00000000
00000000
00000000
00000000
00000000
00000000
00000000
00000000
00000000
00000000
00000000
00000000
00000000
00000000
000026fe
00003bed
fffff9cd
ffffeeaf
ffffea4b
fffffa14
ffffd0f4
ffffd89d
ffffe278
00002ab0
fffff83c
fffff172
ffffdb94
ffffeeeb
ffffd59b
0000056a
00001996
ffffc7a4
fffff989
00000c31
000009aa
ffffc121
fffff9b1
00003914
00001393
ffffc7b7
000013c8
00002882
00000716
ffffd69d
0000332a
0000194f
000036d2
ffffde46
00000b1e
00003195
ffffe3ac
00002bda
ffffcdae
ffffc280
00000d3c
fffff4e4
ffffd00a
ffffd153
000000f4
000018aa
ffffd23d
000021e0
ffffd0ac
fffffb9d
00001ad6
ffffe743
000030a2
00000b53
ffffeca5
00001a93
00002870
ffffe436
00003051
fffffa60
000012a2
00002ca6
fffff08b
fffffb49
ffffd448
00003617
00001d53
fffff3b7
ffffda5d
000039c3
00003505
ffffedf5
fffff332
fffffff4
ffffc6e4
ffffeca5
ffffff7b
ffffc089
ffffd32a
000007ca
ffffeca7
ffffefff
00003064
ffffec78
ffffce29
00002183
ffffde95
ffffd427
ffffc0ad
ffffe408
00000d0a
00000f47
ffffd38d
000002ab
00003053
000033d0
fffffe98
00000d12
ffffd371
000029e9
00001812
0000323e
ffffe705
ffffe0c9
000007f0
ffffc3cf
ffffed34
fffffd04
ffffe4c6
00001d41
ffffd1bf
000025c9
fffff23f
0000210f
00003230
000038ef
fffff057
fffff96c
fffff1ca
ffffd623
ffffff5f
000015c3
000005a3
ffffc24b
ffffdabe
00000e47
ffffdc85
ffffe4a8
00003adc
fffff343
ffffc4e5
ffffe8c1
ffffd0f4
ffffcc35
ffffc0a5
fffff518
ffffc4af
0000023f
00001def
ffffe6d0
00000941
00002a37
00000974
ffffdcf6
00003885
0000114f
ffffc677
ffffe173
fffff887
fffffbde
00001b4b
000011b6
000016ce
000017da
ffffd273
00001c5b
000027cc
ffffdbac
ffffd288
000039e0
ffffef0c
0000035d
ffffc350
ffffc5ad
00003d64
00000344
00002d83
00002d25
ffffeba6
00002d16
000035c9
00002940
ffffe399
ffffd0ed
00003660
00002e36
ffffd953
fffff000
ffffff9b
ffffd7dc
0000001c
ffffceee
000034b6
00001cb1
ffffd4a1
fffff452
ffffe9fa
ffffca27
ffffdfbf
000004ad
ffffff2d
fffff6fb
000023cb
ffffee52
0000249c
fffff307
fffff4b2
ffffd485
ffffd0c5
000031b4
000019c4
00002572
fffffde3
000026f7
00001fb5
ffffe08e
fffff199
fffffbbb
ffffc1bb
000012d5
ffffc20a
000027ca
0000285e
ffffcf45
ffffd601
ffffca79
000017fd
ffffe291
000027f9
ffffdcd6
00001adb
ffffef36
ffffce1a
000021b8
fffff94d
000006b0
000038e8
00002f6c
ffffcca4
ffffee11
00003085
ffffdcb7
00000e71
ffffc9a2
00001cf7
ffffe576
ffffdd44
00002cf1
00001bb4
00002613
ffffbc70
ffffda47
00000463
ffffde00
fffffd75
fffff623
00003086
ffffd252
000007c1
ffffd00b
000003ff
00003be5
ffffea64
ffffd917
ffffd6fe
ffffd950
000002e9
ffffe071
ffffc85d
0000120c
ffffcbe5
00003e26
00003ee3
ffffef46
0000240f
ffffc4b6
00002641
ffffe554
ffffee29
fffff7d3
00002d17
ffffc1f4
fffffd5f
ffffcb05
fffff23e
00002980
ffffd533
000009c7
ffffcfd2
ffffc7c5
00000921
000035e8
ffffe8d1
fffffd55
fffff882
ffffdf13
ffffd3a4
ffffefd9
ffffdb1a
ffffc083
ffffda81
ffffe979
fffffa1f
ffffd170
ffffe40b
00002bff
fffff52c
00002aba
00000385
000008f8
00001c88
ffffe6d3
ffffffd8
ffffe6f0
ffffd0aa
ffffda3f
fffff039
ffffebac
ffffcb4d
0000374a
ffffe4ed
00000b29
ffffc552
0000291f
ffffc322
00003c13
ffffcc2a
00000292
fffff808
00003b6f
00000f25
ffffd607
ffffd38a
00002920
ffffcaae
000029d0
00002b92
fffff5c1
fffff929
fffff754
00000b43
000021ad
ffffd33d
00003fa9
fffff7b1
00002918
00002e35
fffff07f
00001d08
00002c29
00002c86
ffffc2ae
fffff629
ffffd077
000000a5
00003bf2
000028b1
ffffe93b
ffffc5e4
0000256a
ffffe75d
ffffe602
000025ce
ffffb94c
00000d6e
fffffb62
ffffef16
ffffd19f
ffffdb87
ffffdd2c
00000cac
00002299
fffff5fc
ffffdaec
ffffe369
ffffc002
0000319a
00001f4c
00002219
00002e48
ffffe64e
ffffe173
fffff552
00001ece
000007b6
fffff809
ffffda2a
00001384
ffffc653
00003289
00002d9b
00003831
000031ac
00003cdc
000032b6
fffffd47
00003140
ffffe94d
ffffd649
000014e3
000004a0
0000213c
00000837
00001937
ffffe84b
ffffc128
00001deb
ffffcde7
fffff3d7
00000062
000026e2
ffffe13d
ffffe9a3
ffffdc66
00002814
ffffdd2c
fffff789
ffffd441
ffffd05e
000007d7
000031b0
ffffe29e
ffffda42
000039f3
000010a4
ffffda41
000012b4
00003f6f
00002e39
ffffd0d7
ffffecb0
00002717
000012d9
00003cd1
00003c73
fffff0c8
0000360a
fffff17c
000009f8
ffffc56c
ffffd308
00000168
000008ea
ffffd79a
00000c96
ffffc2df
ffffd6b4
000010f6
ffffe400
fffffbf0
ffffd686
ffffcb19
ffffd5b6
ffffcdd6
00002df8
000007cf
00000bf1
00001e80
ffffff4a
000014ca
00000d6d
000001e1
000014e8
000017ac
00000392
ffffe5e4
0000255e
ffffc31e
000018c4
0000251d
ffffca11
fffff0a1
ffffe21d
fffffda0
00000067
00001363
ffffd690
ffffeac2
ffffd799
00001124
00003aa0
000014ea
000038ad
fffffc4b
ffffc58d
ffffd159
ffffcf18
000002c7
00001ccd
ffffd64d
000030ee
00001bff
ffffd673
fffffd1e
ffffd782
00000968
ffffdaed
00000302
000024e0
00001661
ffffcaa4
ffffe009
00003164
ffffca6c
ffffc38e
0000136b
ffffd956
00002752
0000213e
00000220
000035c5
000024bc
ffffd9fe
ffffec5c
0000060e
00003fed
fffff787
00003f89
ffffcb75
ffffdb2f
fffff845
fffffb90
ffffd36c
000028bf
00002188
ffffd32b
ffffc8a0
00000f2e
ffffcf31
fffffb73
ffffd636
ffffd6db
000035da
00001f34
ffffd2ee
fffff1e0
fffff87d
00000f2f
00000b37
ffffdd34
ffffcaa2
00001e5a
000012fe
fffffbc9
000017c7
00001bba
ffffd51b
fffffbf6
00000ce0
00001717
0000108a
00000e0d
00001a09
ffffc3a9
0000353b
fffff1d5
0000323d
ffffcbe2
ffffded2
000032f4
fffff5a5
ffffee9d
ffffc6a6
fffff54a
fffff502
00000c69
00002afa
00001134
00001873
ffffc0f7
ffffcb7c
fffff161
ffffd3c6
00003408
ffffd53d
0000192f
fffff17f
ffffd01a
00001338
000033f0
ffffcfd6
ffffcf5d
fffff6dc
00001a1e
00003ac6
fffff236
fffff336
000039b1
fffffe0f
ffffee7f
fffff107
00001a74
fffff143
00001726
ffffe7a2
00001cdc
000008d9
00002b43
ffffd4d7
fffff429
000024d1
ffffe116
00000606
00002434
00000bf9
fffff6a6
ffffbe58
ffffd074
000025a7
0000013d
00002432
ffffe541
fffff36c
ffffbb70
fffff356
000014f0
000005a9
00000563
0000301d
ffffca0b
00002351
ffffec86
000033b5
fffff414
ffffdf4e
0000222d
ffffebe3
ffffef92
fffffc93
0000252c
ffffca0e
ffffd878
0000200b
00003bc5
00001f4d
ffffc950
ffffeedc
00002daf
ffffc207
ffffd078
fffffc73
ffffefa8
00002334
00002a07
fffffe52
0000244f
ffffc8a2
fffff8a8
ffffe897
00002549
000037a6
ffffca0c
ffffdf7e
00002fc4
000031c6
0000061d
ffffeeed
00001d0d
fffff966
000015c9
00000309
fffff896
fffff338
00000630
00000818
00003157
00000182
0000116b
fffffc64
0000003f
00000c9f
ffffd075
00002f41
000007f8
00002d9c
00002b1d
ffffda75
00003d5e
ffffc013
00003b45
ffffef05
00002637
0000242d
fffffee1
fffff60b
00000147
fffff274
00001d03
00003691
fffffcc2
00002c75
fffffadc
ffffd7c5
ffffcef5
0000122f
ffffc46f
000029e2
000036f6
ffffdc4c
000007fa
ffffe5a3
000020b4
00003d3a
fffff8f2
00003bf7
00001e33
fffff530
ffffdf80
fffffa95
00003a83
00002b05
00003ea0
fffffda7
fffffb2d
00002ca8
00003c59
000031d0
00001e16
ffffff49
00003d85
00001ffc
ffffdd76
00003d56
0000185b
0000208a
ffffea8e
ffffc7df
ffffc1c5
0000087d
000029cf
ffffc5cd
000032fe
00001e8a
fffff1bf
00002b98
00002710
00000d54
00001768
00001513
0000080d
00001849
000037f9
ffffd551
ffffd327
ffffec52
fffff1f7
00002367
00003668
ffffcf06
ffffc576
ffffe0b4
0000045e
fffff017
ffffc4a0
ffffc3df
000016f7
00002690
000024af
ffffdfa2
00000934
ffffd66a
00000417
00000644
000024c2
000028a1
000027c1
ffffe56e
000012c7
fffffeb7
ffffda2c
fffff829
00001db4
ffffe975
fffff2e4
ffffde8c
ffffc3d6
00003f70
000006e4
ffffff90
000015c4
00000ca1
00003704
000004c5
ffffc8af
0000123c
ffffc904
00002549
fffff1f0
00003488
ffffddf8
000020fb
ffffe082
00003a2b
ffffca75
00000000
00000000
00000000
00000000
00000000
00000000
00000000
00000000
00000000
00000000
00000000
00000000
00000000
00000000
00000000
00000000
00000000
00000000
00000000
00000000